{
  "version": "1.0",
  "truncation": null,
  "padding": null,
  "added_tokens": [
    {
      "id": 0,
      "content": "<unk>",
      "single_word": false,
      "lstrip": false,
      "rstrip": false,
      "normalized": false,
      "special": true
    },
    {
      "id": 1,
      "content": "<s>",
      "single_word": false,
      "lstrip": false,
      "rstrip": false,
      "normalized": false,
      "special": true
    },
    {
      "id": 2,
      "content": "</s>",
      "single_word": false,
      "lstrip": false,
      "rstrip": false,
      "normalized": false,
      "special": true
    }
  ],
  "normalizer": null,
  "pre_tokenizer": {
    "type": "Whitespace"
  },
  "post_processor": null,
  "decoder": null,
  "model": {
    "type": "BPE",
    "dropout": null,
    "unk_token": "<unk>",
    "continuing_subword_prefix": null,
    "end_of_word_suffix": null,
    "fuse_unk": false,
    "byte_fallback": false,
    "vocab": {
      "<unk>": 0,
      "<s>": 1,
      "</s>": 2,
      "!": 3,
      "\"": 4,
      "#": 5,
      "$": 6,
      "%": 7,
      "&": 8,
      "'": 9,
      "(": 10,
      ")": 11,
      "*": 12,
      "+": 13,
      ",": 14,
      "-": 15,
      ".": 16,
      "/": 17,
      "0": 18,
      "1": 19,
      "2": 20,
      "4": 21,
      "5": 22,
      "6": 23,
      "7": 24,
      "8": 25,
      ":": 26,
      ";": 27,
      "<": 28,
      ">": 29,
      "?": 30,
      "@": 31,
      "A": 32,
      "B": 33,
      "C": 34,
      "D": 35,
      "E": 36,
      "F": 37,
      "G": 38,
      "H": 39,
      "I": 40,
      "J": 41,
      "K": 42,
      "L": 43,
      "M": 44,
      "N": 45,
      "O": 46,
      "P": 47,
      "R": 48,
      "S": 49,
      "T": 50,
      "U": 51,
      "V": 52,
      "W": 53,
      "X": 54,
      "Y": 55,
      "[": 56,
      "\\": 57,
      "]": 58,
      "^": 59,
      "_": 60,
      "a": 61,
      "b": 62,
      "c": 63,
      "d": 64,
      "e": 65,
      "f": 66,
      "g": 67,
      "h": 68,
      "i": 69,
      "j": 70,
      "k": 71,
      "l": 72,
      "m": 73,
      "n": 74,
      "o": 75,
      "p": 76,
      "q": 77,
      "r": 78,
      "s": 79,
      "t": 80,
      "u": 81,
      "v": 82,
      "w": 83,
      "x": 84,
      "y": 85,
      "z": 86,
      "{": 87,
      "|": 88,
      "}": 89,
      "~": 90,
      "က": 91,
      "ခ": 92,
      "ဂ": 93,
      "ဃ": 94,
      "င": 95,
      "စ": 96,
      "ဆ": 97,
      "ဇ": 98,
      "ဈ": 99,
      "ဉ": 100,
      "ည": 101,
      "ဋ": 102,
      "ဌ": 103,
      "ဍ": 104,
      "ဎ": 105,
      "ဏ": 106,
      "တ": 107,
      "ထ": 108,
      "ဒ": 109,
      "ဓ": 110,
      "န": 111,
      "ပ": 112,
      "ဖ": 113,
      "ဗ": 114,
      "ဘ": 115,
      "မ": 116,
      "ယ": 117,
      "ရ": 118,
      "လ": 119,
      "ဝ": 120,
      "သ": 121,
      "ဟ": 122,
      "ဠ": 123,
      "အ": 124,
      "ဣ": 125,
      "ဤ": 126,
      "ဥ": 127,
      "ဦ": 128,
      "ဧ": 129,
      "ဩ": 130,
      "ဪ": 131,
      "ါ": 132,
      "ာ": 133,
      "ိ": 134,
      "ီ": 135,
      "ု": 136,
      "ူ": 137,
      "ေ": 138,
      "ဲ": 139,
      "ံ": 140,
      "့": 141,
      "း": 142,
      "္": 143,
      "်": 144,
      "ျ": 145,
      "ြ": 146,
      "ွ": 147,
      "ှ": 148,
      "ဿ": 149,
      "၀": 150,
      "၁": 151,
      "၂": 152,
      "၃": 153,
      "၄": 154,
      "၅": 155,
      "၆": 156,
      "၇": 157,
      "၈": 158,
      "၉": 159,
      "၊": 160,
      "။": 161,
      "၌": 162,
      "၍": 163,
      "၎": 164,
      "၏": 165,
      "‌": 166,
      "‍": 167,
      "–": 168,
      "‘": 169,
      "’": 170,
      "“": 171,
      "”": 172,
      "…": 173,
      "င်": 174,
      "ို": 175,
      "ော": 176,
      "က်": 177,
      "န်": 178,
      "င်း": 179,
      "ား": 180,
      "တ်": 181,
      "ေး": 182,
      "ပ်": 183,
      "ကြ": 184,
      "ယ်": 185,
      "ပြ": 186,
      "ည်": 187,
      "စ်": 188,
      "ချ": 189,
      "ီး": 190,
      "န်း": 191,
      "့်": 192,
      "ုံ": 193,
      "ိုး": 194,
      "ကျ": 195,
      "မ်": 196,
      "ောက်": 197,
      "ဲ့": 198,
      "မှ": 199,
      "မ်း": 200,
      "ောင်": 201,
      "ေါ": 202,
      "ုပ်": 203,
      "ပါ": 204,
      "မြ": 205,
      "ရှ": 206,
      "ွေ": 207,
      "ောင်း": 208,
      "ကို": 209,
      "ော်": 210,
      "ိုက်": 211,
      "ုံး": 212,
      "ို့": 213,
      "ူး": 214,
      "ိုင်": 215,
      "င့်": 216,
      "ဖြ": 217,
      "နှ": 218,
      "မျ": 219,
      "ုတ်": 220,
      "နေ": 221,
      "ည်း": 222,
      "ပေါ": 223,
      "တာ": 224,
      "ိတ်": 225,
      "ွဲ": 226,
      "တယ်": 227,
      "ခြ": 228,
      "ွေး": 229,
      "ော့": 230,
      "တွေ": 231,
      "ရာ": 232,
      "လက်": 233,
      "တစ်": 234,
      "ိုင်း": 235,
      "လှ": 236,
      "စာ": 237,
      "ွက်": 238,
      "ပျ": 239,
      "ကြီး": 240,
      "ရေ": 241,
      "သူ": 242,
      "ွား": 243,
      "လုပ်": 244,
      "စား": 245,
      "ဉ်": 246,
      "တဲ့": 247,
      "လွ": 248,
      "တော့": 249,
      "သည်": 250,
      "သား": 251,
      "မှာ": 252,
      "န့်": 253,
      "ဖြစ်": 254,
      "အတ": 255,
      "နာ": 256,
      "ါး": 257,
      "ဆို": 258,
      "လျ": 259,
      "ည့်": 260,
      "ပေး": 261,
      "ပြီး": 262,
      "ိမ်": 263,
      "လာ": 264,
      "လူ": 265,
      "လေး": 266,
      "ခေါ": 267,
      "ခံ": 268,
      "နဲ့": 269,
      "ိပ်": 270,
      "မိ": 271,
      "ရင်": 272,
      "ုန်း": 273,
      "လိုက်": 274,
      "ုန်": 275,
      "ရှိ": 276,
      "လေ": 277,
      "အသ": 278,
      "ွန်": 279,
      "ရေး": 280,
      "ွင်း": 281,
      "တော်": 282,
      "ရွ": 283,
      "သာ": 284,
      "လုံး": 285,
      "လို": 286,
      "ိန်": 287,
      "ဘူး": 288,
      "မာ": 289,
      "မီး": 290,
      "တင်": 291,
      "တို့": 292,
      "ထား": 293,
      "ပဲ": 294,
      "မျက်": 295,
      "ပေါက်": 296,
      "ခင်": 297,
      "အေး": 298,
      "နိုင်": 299,
      "ကား": 300,
      "သွား": 301,
      "လား": 302,
      "သိ": 303,
      "မယ်": 304,
      "စိတ်": 305,
      "လဲ": 306,
      "အရ": 307,
      "ပန်း": 308,
      "ကာ": 309,
      "ေ့": 310,
      "တိ": 311,
      "သံ": 312,
      "ွတ်": 313,
      "ဦး": 314,
      "ဘာ": 315,
      "ကိုယ်": 316,
      "အစ": 317,
      "နား": 318,
      "လို့": 319,
      "င်္": 320,
      "ောင့်": 321,
      "ပါး": 322,
      "အကြ": 323,
      "အချ": 324,
      "အား": 325,
      "ခွ": 326,
      "ခု": 327,
      "ဝင်": 328,
      "ဖျ": 329,
      "လျှ": 330,
      "တိုက်": 331,
      "ပြန်": 332,
      "ွယ်": 333,
      "နောက်": 334,
      "ပါတယ်": 335,
      "တ္": 336,
      "ဆေး": 337,
      "ပြော": 338,
      "ခြေ": 339,
      "ွန်း": 340,
      "မှု": 341,
      "ဒီ": 342,
      "န္": 343,
      "များ": 344,
      "ပုံ": 345,
      "မင်း": 346,
      "သေ": 347,
      "ထိုး": 348,
      "တက်": 349,
      "ပင်": 350,
      "ကောင်း": 351,
      "လည်": 352,
      "ရည်": 353,
      "ချက်": 354,
      "တရ": 355,
      "ဝါ": 356,
      "သက်": 357,
      "သမ": 358,
      "ဒါ": 359,
      "ဇာ": 360,
      "ပွဲ": 361,
      "အာ": 362,
      "က္": 363,
      "အိမ်": 364,
      "ွမ်း": 365,
      "စိ": 366,
      "ခဲ့": 367,
      "ဏ်": 368,
      "တံ": 369,
      "အမ": 370,
      "ခေါင်း": 371,
      "ဗျ": 372,
      "ံ့": 373,
      "နည်း": 374,
      "ပေါ်": 375,
      "လွှ": 376,
      "တောင်": 377,
      "အဆ": 378,
      "အထ": 379,
      "ဖွ": 380,
      "လည်း": 381,
      "သီး": 382,
      "အက": 383,
      "ိန်း": 384,
      "er": 385,
      "ng": 386,
      "ငါး": 387,
      "မိုး": 388,
      "ငွေ": 389,
      "အောင်": 390,
      "ရွှ": 391,
      "co": 392,
      "တိုင်": 393,
      "လမ်း": 394,
      "နေ့": 395,
      "ပု": 396,
      "မြေ": 397,
      "ယူ": 398,
      "စစ်": 399,
      "မျိုး": 400,
      "ဉ်း": 401,
      "ရိုး": 402,
      "ချင်": 403,
      "စ္": 404,
      "နှစ်": 405,
      "ညာ": 406,
      "ပတ်": 407,
      "ဟာ": 408,
      "ိမ": 409,
      "ပြု": 410,
      "ရင်း": 411,
      "ငယ်": 412,
      "အခ": 413,
      "ရှင်": 414,
      "ကြိုး": 415,
      "ဘယ်": 416,
      "ပြီ": 417,
      "စပ်": 418,
      "တူ": 419,
      "ယာ": 420,
      "သွေး": 421,
      "ချို": 422,
      "ကုန်": 423,
      "ရော": 424,
      "စက်": 425,
      "သော": 426,
      "or": 427,
      "ညှ": 428,
      "ယောက်": 429,
      "သီ": 430,
      "တန်း": 431,
      "အမြ": 432,
      "ပေါင်း": 433,
      "သင်": 434,
      "ချင်း": 435,
      "နှာ": 436,
      "ပူ": 437,
      "ပေ": 438,
      "ရဲ": 439,
      "ကြား": 440,
      "ရဲ့": 441,
      "ဆုံး": 442,
      "ဘော": 443,
      "လောက်": 444,
      "သစ်": 445,
      "ရက်": 446,
      "အလ": 447,
      "အုပ်": 448,
      "la": 449,
      "စကား": 450,
      "ညီ": 451,
      "အပြ": 452,
      "မှတ်": 453,
      "စေ": 454,
      "ကျွန်": 455,
      "ဖက်": 456,
      "ရုပ်": 457,
      "ဟုတ်": 458,
      "မျှ": 459,
      "ငြ": 460,
      "ဆောင်": 461,
      "ပိုး": 462,
      "ွှ": 463,
      "ဆွဲ": 464,
      "et": 465,
      "ကပ်": 466,
      "ဓာ": 467,
      "မု": 468,
      "အိုး": 469,
      "စီး": 470,
      "စည်း": 471,
      "ထောင်": 472,
      "ချုပ်": 473,
      "ti": 474,
      "တည်": 475,
      "တင်း": 476,
      "တပ်": 477,
      "သတ်": 478,
      "စွ": 479,
      "ag": 480,
      "ကောက်": 481,
      "တန်": 482,
      "နီ": 483,
      "မ္": 484,
      "စု": 485,
      "ရောက်": 486,
      "age": 487,
      "ဝါး": 488,
      "ကျောက်": 489,
      "မှန်": 490,
      "က္ခ": 491,
      "ar": 492,
      "on": 493,
      "ဖို့": 494,
      "ဆီ": 495,
      "ဆက်": 496,
      "ကြည့်": 497,
      "တွေ့": 498,
      "ိမ့်": 499,
      "ကောင်": 500,
      "ထွက်": 501,
      "မည်": 502,
      "ရီ": 503,
      "ှက်": 504,
      "ကြောင်": 505,
      "သေး": 506,
      "ဂျ": 507,
      "ဆင်": 508,
      "ဆန်": 509,
      "ဆိုး": 510,
      "တိုး": 511,
      "သုံး": 512,
      "တရား": 513,
      "နက်": 514,
      "ကန်": 515,
      "ဒေါ": 516,
      "စီ": 517,
      "အကျ": 518,
      "me": 519,
      "ခါး": 520,
      "စုံ": 521,
      "စဉ်": 522,
      "လင်": 523,
      "လော": 524,
      "မြင်": 525,
      "အတွက်": 526,
      "မျက်နှာ": 527,
      "အချိန်": 528,
      "ဆံ": 529,
      "ဆိုင်": 530,
      "ယား": 531,
      "ရိုက်": 532,
      "လီ": 533,
      "ဝန်": 534,
      "ဝတ်": 535,
      "စင်": 536,
      "ပိုင်း": 537,
      "လယ်": 538,
      "ကြောင်း": 539,
      "ပေါ့": 540,
      "ကု": 541,
      "နံ": 542,
      "ပစ်": 543,
      "မွေး": 544,
      "ရိ": 545,
      "ရန်": 546,
      "သင်္": 547,
      "အလုပ်": 548,
      "ပျက်": 549,
      "ကူ": 550,
      "ဝမ်း": 551,
      "ထုတ်": 552,
      "ကြာ": 553,
      "ကြည်": 554,
      "တို": 555,
      "တိုင်း": 556,
      "နတ်": 557,
      "နစ်": 558,
      "ကြက်": 559,
      "တော": 560,
      "တည်း": 561,
      "ပြည်": 562,
      "ရွှေ": 563,
      "ကင်း": 564,
      "လိပ်": 565,
      "သို့": 566,
      "ဇာတ်": 567,
      "ခါ": 568,
      "ခဲ": 569,
      "ခန်း": 570,
      "ရပ်": 571,
      "ပြင်": 572,
      "တွေကို": 573,
      "တစ်ခု": 574,
      "ဓာတ်": 575,
      "ra": 576,
      "တီ": 577,
      "မူ": 578,
      "ရုံ": 579,
      "ကိုင်": 580,
      "လင်း": 581,
      "uage": 582,
      "ဈေး": 583,
      "တတ်": 584,
      "ပိတ်": 585,
      "အောက်": 586,
      "ခြောက်": 587,
      "nguage": 588,
      "ကူး": 589,
      "ခရ": 590,
      "မဟုတ်": 591,
      "အဖ": 592,
      "ိမ်း": 593,
      "ချိန်": 594,
      "ဖွဲ့": 595,
      "de": 596,
      "il": 597,
      "တွ": 598,
      "အပ်": 599,
      "ကျောင်း": 600,
      "ကျော်": 601,
      "ခတ်": 602,
      "ထဲ": 603,
      "ထင်": 604,
      "ယ့်": 605,
      "အန": 606,
      "language": 607,
      "တုံး": 608,
      "ဝေ": 609,
      "ro": 610,
      "ဂါ": 611,
      "တီး": 612,
      "တမ်း": 613,
      "ပညာ": 614,
      "ကြေး": 615,
      "ခြင်း": 616,
      "ခြား": 617,
      "အကြောင်း": 618,
      "ခွဲ": 619,
      "ထက်": 620,
      "ထပ်": 621,
      "ပွ": 622,
      "ရောင်": 623,
      "ရှေ့": 624,
      "ဖြတ်": 625,
      "ဆိုရင်": 626,
      "ကွ": 627,
      "ကွဲ": 628,
      "ပိုင်": 629,
      "သင့်": 630,
      "ကွင်း": 631,
      "တွင်း": 632,
      "အဲ": 633,
      "ပြေ": 634,
      "ကွက်": 635,
      "တောင်း": 636,
      "မဲ့": 637,
      "ရွက်": 638,
      "ပေါင်": 639,
      "တ္တ": 640,
      "mp": 641,
      "တောက်": 642,
      "ချာ": 643,
      "ခိုး": 644,
      "မောင်း": 645,
      "အူ": 646,
      "ထောက်": 647,
      "ဘက်": 648,
      "ုံ့": 649,
      "စိုက်": 650,
      "ဖတ်": 651,
      "ဝက်": 652,
      "ဆိုတာ": 653,
      "သမား": 654,
      "မုန့်": 655,
      "စံ": 656,
      "ထိုင်": 657,
      "ထွေး": 658,
      "နယ်": 659,
      "ပို": 660,
      "ဝိ": 661,
      "ခေါ်": 662,
      "ဖူး": 663,
      "ပြာ": 664,
      "ပြား": 665,
      "ဖြူ": 666,
      "an": 667,
      "in": 668,
      "ဒေ": 669,
      "ပိုက်": 670,
      "သောက်": 671,
      "မြှ": 672,
      "ခေါက်": 673,
      "ကလ": 674,
      "ခင်း": 675,
      "နိ": 676,
      "သွင်း": 677,
      "သူ့": 678,
      "မိန်း": 679,
      "ကလေး": 680,
      "ခုံ": 681,
      "ဌေး": 682,
      "နဲ": 683,
      "လောင်း": 684,
      "နှုတ်": 685,
      "ကတော့": 686,
      "ခွက်": 687,
      "ဆာ": 688,
      "ဆရာ": 689,
      "ထိ": 690,
      "င့်": 691,
      "ရှာ": 692,
      "ွေ့": 693,
      "စေ့": 694,
      "နန်း": 695,
      "လုံ": 696,
      "နှင့်": 697,
      "လွန်": 698,
      "ဒု": 699,
      "ဘီ": 700,
      "မေး": 701,
      "ကြမ်း": 702,
      "ရှင်း": 703,
      "လွတ်": 704,
      "ဖျား": 705,
      "စိမ်း": 706,
      "ကမ်း": 707,
      "ခွေး": 708,
      "စိုး": 709,
      "ဝိုင်း": 710,
      "ပြေး": 711,
      "မြင်း": 712,
      "အေးအေး": 713,
      "comp": 714,
      "at": 715,
      "ခေ": 716,
      "ဆွေ": 717,
      "ထုပ်": 718,
      "အကို": 719,
      "လိုက်တာ": 720,
      "ခွင့်": 721,
      "ကန်း": 722,
      "ငှက်": 723,
      "စောင်း": 724,
      "မိတ်": 725,
      "ယောင်": 726,
      "လူး": 727,
      "သဘော": 728,
      "ပြောင်း": 729,
      "နှင်း": 730,
      "အတွင်း": 731,
      "န္ဒ": 732,
      "ကျွန်တော်": 733,
      "ဆိုရင်တော့": 734,
      "ဏ္": 735,
      "ဒ်": 736,
      "ချိုး": 737,
      "ပျော်": 738,
      "င်္ဂ": 739,
      "ing": 740,
      "net": 741,
      "re": 742,
      "ပိ": 743,
      "အဲ့": 744,
      "ကျား": 745,
      "ကျိုး": 746,
      "code": 747,
      "ဖန်": 748,
      "ဖော်": 749,
      "မရ": 750,
      "ရား": 751,
      "ဟင်း": 752,
      "မှား": 753,
      "မြန်": 754,
      "သူမ": 755,
      "tion": 756,
      "ခေတ်": 757,
      "စွဲ": 758,
      "ဉာ": 759,
      "ဒ္": 760,
      "နို့": 761,
      "ဖောက်": 762,
      "မရှိ": 763,
      "မွှ": 764,
      "အရာ": 765,
      "မြစ်": 766,
      "မြီး": 767,
      "စွာ": 768,
      "ခိုင်": 769,
      "ထူး": 770,
      "နု": 771,
      "ရစ်": 772,
      "အော်": 773,
      "အရေး": 774,
      "အပေါ်": 775,
      "လှည့်": 776,
      "ec": 777,
      "ကံ": 778,
      "ကယ်": 779,
      "တု": 780,
      "ဘု": 781,
      "မေ": 782,
      "အနေ": 783,
      "ုဏ်": 784,
      "ပြတ်": 785,
      "ချစ်": 786,
      "ပါဘူး": 787,
      "လွယ်": 788,
      "ဗျာ": 789,
      "compil": 790,
      "လိမ့်": 791,
      "အခု": 792,
      "ပြည့်": 793,
      "ချဉ်": 794,
      "ကျေး": 795,
      "ရာဇ": 796,
      "mm": 797,
      "ကတ်": 798,
      "ဆိတ်": 799,
      "နပ်": 800,
      "ဖို": 801,
      "လ်": 802,
      "သု": 803,
      "သင်း": 804,
      "ကျင်": 805,
      "အသုံး": 806,
      "အခါ": 807,
      "တွင်": 808,
      "စရာ": 809,
      "ဓိ": 810,
      "ပွား": 811,
      "ချည်": 812,
      "မြင့်": 813,
      "နေတာ": 814,
      "စာအုပ်": 815,
      "မ္မ": 816,
      "အဲဒီ": 817,
      "နွား": 818,
      "ပို့": 819,
      "ဘဲ": 820,
      "မီ": 821,
      "ရတာ": 822,
      "အိပ်": 823,
      "ဥပ": 824,
      "ကြော": 825,
      "ရှည်": 826,
      "လေ့": 827,
      "လောက": 828,
      "ကော်": 829,
      "ခို": 830,
      "ငါ": 831,
      "စမ်း": 832,
      "ဆင်း": 833,
      "ဌာ": 834,
      "တွဲ": 835,
      "နင်း": 836,
      "ဘေး": 837,
      "လပ်": 838,
      "ချောင်း": 839,
      "မျက်စိ": 840,
      "ခရီး": 841,
      "wor": 842,
      "ကိန်း": 843,
      "ဆတ်": 844,
      "ထမင်း": 845,
      "သည်း": 846,
      "မြက်": 847,
      "တစ်ယောက်": 848,
      "ဘာဝ": 849,
      "သမ္": 850,
      "ပွင့်": 851,
      "နော်": 852,
      "ဖား": 853,
      "လွဲ": 854,
      "ရှား": 855,
      "လွှတ်": 856,
      "00": 857,
      "ကွယ်": 858,
      "ထု": 859,
      "ဓား": 860,
      "ရုံး": 861,
      "သမီး": 862,
      "ျား": 863,
      "ကျယ်": 864,
      "ခေါင်": 865,
      "သိမ်း": 866,
      "ယောက်ျား": 867,
      "al": 868,
      "es": 869,
      "ခက်": 870,
      "ခနဲ": 871,
      "ငံ": 872,
      "ငန်း": 873,
      "ဋ္": 874,
      "မဲ": 875,
      "ိုလ်": 876,
      "ကြံ": 877,
      "ဖြေ": 878,
      "နေရာ": 879,
      "လျှောက်": 880,
      "ဉာဏ်": 881,
      "CL": 882,
      "ကုန်း": 883,
      "ဂုဏ်": 884,
      "ဆီး": 885,
      "ဏာ": 886,
      "ထည်": 887,
      "ပွတ်": 888,
      "ရံ": 889,
      "သန်": 890,
      "အို": 891,
      "ကြွ": 892,
      "လိုက်ပါ": 893,
      "စောက်": 894,
      "တုတ်": 895,
      "ပ္": 896,
      "ပစ္": 897,
      "ဗြ": 898,
      "ဟန်": 899,
      "ပြောင်": 900,
      "ချော": 901,
      "ဖြင့်": 902,
      "နှိပ်": 903,
      "ရွယ်": 904,
      "pro": 905,
      "un": 906,
      "ve": 907,
      "စောင်": 908,
      "နွယ်": 909,
      "ပက်": 910,
      "လောင်": 911,
      "အင်": 912,
      "အုန်း": 913,
      "ွန့်": 914,
      "မြို့": 915,
      "ပျို": 916,
      "စည်": 917,
      "တေ": 918,
      "ပီ": 919,
      "ပုန်း": 920,
      "ရု": 921,
      "ဝင်း": 922,
      "အဝ": 923,
      "အသား": 924,
      "ကျေ": 925,
      "ရွာ": 926,
      "နိုင်ငံ": 927,
      "တ္တာ": 928,
      "တ္တိ": 929,
      "မိန်းမ": 930,
      "gra": 931,
      "it": 932,
      "ကိုး": 933,
      "ဆယ်": 934,
      "ထီး": 935,
      "ပုပ်": 936,
      "ဖိ": 937,
      "ရိပ်": 938,
      "သဘာဝ": 939,
      "အိတ်": 940,
      "အလှ": 941,
      "မြောက်": 942,
      "မြွေ": 943,
      "လိမ့်မယ်": 944,
      "gramm": 945,
      "li": 946,
      "ဆစ်": 947,
      "ဆောင်း": 948,
      "ပန်": 949,
      "မယ့်": 950,
      "သဲ": 951,
      "သန်း": 952,
      "အင်္": 953,
      "ကြောင့်": 954,
      "ချေး": 955,
      "လှေ": 956,
      "ပျံ": 957,
      "သူတို့": 958,
      "Co": 959,
      "စောင့်": 960,
      "ထမ်း": 961,
      "ထုံး": 962,
      "မန်": 963,
      "မော်": 964,
      "ရယ်": 965,
      "ချမ်း": 966,
      "နေတယ်": 967,
      "ထားတဲ့": 968,
      "အရပ်": 969,
      "ဖွင့်": 970,
      "ရောဂါ": 971,
      "nt": 972,
      "ကဲ": 973,
      "ကုပ်": 974,
      "စွန်": 975,
      "တုန်း": 976,
      "ထိန်း": 977,
      "နွေး": 978,
      "ပလ": 979,
      "ဖမ်း": 980,
      "မတ": 981,
      "ရွေး": 982,
      "လံ": 983,
      "အမှ": 984,
      "အုတ်": 985,
      "အဖွဲ့": 986,
      "ကျင်း": 987,
      "လွန်း": 988,
      "ခင်ခင်": 989,
      "အားလုံး": 990,
      "ခွာ": 991,
      "st": 992,
      "စဉ်း": 993,
      "ဆိပ်": 994,
      "ထန်း": 995,
      "ထည့်": 996,
      "နီး": 997,
      "မယား": 998,
      "ရူး": 999,
      "အိ": 1000,
      "ပျောက်": 1001,
      "ရွတ်": 1002,
      "ကွာ": 1003,
      "compiler": 1004,
      "programm": 1005,
      "ကိ": 1006,
      "ကန့်": 1007,
      "ဂြ": 1008,
      "ဆူး": 1009,
      "ထူ": 1010,
      "ဗေ": 1011,
      "မတ်": 1012,
      "မန်း": 1013,
      "မသိ": 1014,
      "ရပါ": 1015,
      "လိမ်": 1016,
      "သိုး": 1017,
      "အရှ": 1018,
      "အများ": 1019,
      "အမျိုး": 1020,
      "ကြပ်": 1021,
      "ကျီ": 1022,
      "ကိုက်": 1023,
      "စ္စ": 1024,
      "ညီမ": 1025,
      "pp": 1026,
      "ဆိုင်း": 1027,
      "ဘဝ": 1028,
      "မဟာ": 1029,
      "ယို": 1030,
      "ရမ်း": 1031,
      "သုတ်": 1032,
      "သတင်း": 1033,
      "ဟ်": 1034,
      "ပြုံး": 1035,
      "ချိတ်": 1036,
      "ကျပ်": 1037,
      "ဖြစ်ပါတယ်": 1038,
      "အသက်": 1039,
      "သိန်း": 1040,
      "ခွင်": 1041,
      "ဖျက်": 1042,
      "စ္စာ": 1043,
      "ယာဉ်": 1044,
      "ကျွန်ုပ်": 1045,
      "rame": 1046,
      "work": 1047,
      "ch": 1048,
      "ကွမ်း": 1049,
      "ခုန်": 1050,
      "ခွန်": 1051,
      "ညွှ": 1052,
      "ပယ်": 1053,
      "ယံ": 1054,
      "ရို": 1055,
      "ရုတ်": 1056,
      "လန်": 1057,
      "လတ်": 1058,
      "ဿနာ": 1059,
      "ိုဟ်": 1060,
      "ပြင်း": 1061,
      "ရှု": 1062,
      "ခြုံ": 1063,
      "စာရင်း": 1064,
      "အတူ": 1065,
      "အသံ": 1066,
      "လျှာ": 1067,
      "အမေ": 1068,
      "လွှဲ": 1069,
      "ညှပ်": 1070,
      "ကြည့်": 1071,
      "ကျွန်တော်တို့": 1072,
      "Net": 1073,
      "SD": 1074,
      "USD": 1075,
      "ကော": 1076,
      "ကစား": 1077,
      "ခိုင်း": 1078,
      "ဆုံ": 1079,
      "ဆင့်": 1080,
      "ဆွမ်း": 1081,
      "ဗ္": 1082,
      "ဗိုလ်": 1083,
      "မော": 1084,
      "မက်": 1085,
      "သောင်း": 1086,
      "သန္": 1087,
      "ဟော": 1088,
      "ကျမ်း": 1089,
      "မြတ်": 1090,
      "ရှေး": 1091,
      "မျောက်": 1092,
      "ပျား": 1093,
      "နာရီ": 1094,
      "ဆိုပြီး": 1095,
      "ကုလား": 1096,
      "ဂြိုဟ်": 1097,
      "ramework": 1098,
      "ss": 1099,
      "ကမ္": 1100,
      "စပါး": 1101,
      "တိတ်": 1102,
      "တွက်": 1103,
      "ပုတ်": 1104,
      "ရမယ်": 1105,
      "လု": 1106,
      "ဝယ်": 1107,
      "သော်": 1108,
      "အင": 1109,
      "အပူ": 1110,
      "ပြဿနာ": 1111,
      "ချေ": 1112,
      "ကျည်": 1113,
      "ကျင့်": 1114,
      "ကိုင်း": 1115,
      "ပျစ်": 1116,
      "သည့်": 1117,
      "လျား": 1118,
      "အကြံ": 1119,
      "ဘုရား": 1120,
      "အသုံးပြု": 1121,
      "framework": 1122,
      "ow": 1123,
      "ဂေါ": 1124,
      "စွန်း": 1125,
      "တိမ်": 1126,
      "ထွေ": 1127,
      "ထောင့်": 1128,
      "ဒဏ်": 1129,
      "ဓမ္မ": 1130,
      "မောင်": 1131,
      "သတိ": 1132,
      "ဟို": 1133,
      "အန်": 1134,
      "အင်း": 1135,
      "အနှ": 1136,
      "အနာ": 1137,
      "ကြယ်": 1138,
      "ချွေး": 1139,
      "လွှာ": 1140,
      "မိတ်ဆွေ": 1141,
      "ဒ္ဓ": 1142,
      "ပစ္စည်း": 1143,
      "ဗေဒ": 1144,
      "ခုတ်": 1145,
      "ငင်": 1146,
      "စေး": 1147,
      "စူး": 1148,
      "ညွန့်": 1149,
      "တား": 1150,
      "မိုက်": 1151,
      "လိ": 1152,
      "ဝဲ": 1153,
      "ဟောင်း": 1154,
      "ကြောက်": 1155,
      "ကြတယ်": 1156,
      "ပြက်": 1157,
      "ချီ": 1158,
      "ချောင်": 1159,
      "ချို့": 1160,
      "ကျက်": 1161,
      "ကျွမ်း": 1162,
      "ဖြည့်": 1163,
      "တွေက": 1164,
      "ငြိမ်း": 1165,
      "စွပ်": 1166,
      "သင်္ဘော": 1167,
      "ပ္ပ": 1168,
      "sh": 1169,
      "စွယ်": 1170,
      "ဆု": 1171,
      "ဆား": 1172,
      "တဲ": 1173,
      "ထို": 1174,
      "ဒူး": 1175,
      "ဖိုး": 1176,
      "လန့်": 1177,
      "ဝန်း": 1178,
      "သတ္တ": 1179,
      "အလို": 1180,
      "အမှု": 1181,
      "ချပ်": 1182,
      "ကျော": 1183,
      "မှူး": 1184,
      "ပါတ်": 1185,
      "နေတဲ့": 1186,
      "လှလှ": 1187,
      "ဘာသာ": 1188,
      "ငွေ့": 1189,
      "ဏ္ဍ": 1190,
      "မြန်မာ": 1191,
      "လေ့လာ": 1192,
      "programming": 1193,
      "ခိုက်": 1194,
      "ခန့်": 1195,
      "ငို": 1196,
      "စို့": 1197,
      "စက္": 1198,
      "ဆူ": 1199,
      "ဆုတ်": 1200,
      "ဇ္": 1201,
      "တုန်": 1202,
      "ပထ": 1203,
      "ဖာ": 1204,
      "မေ့": 1205,
      "ယုံ": 1206,
      "ယုတ်": 1207,
      "ရိတ်": 1208,
      "ရတယ်": 1209,
      "ရမှာ": 1210,
      "အုံ": 1211,
      "အခြေ": 1212,
      "ကြွေ": 1213,
      "ကြော်": 1214,
      "ကြိုက်": 1215,
      "ချွတ်": 1216,
      "မှန်း": 1217,
      "မှုတ်": 1218,
      "ရှုပ်": 1219,
      "လှည်း": 1220,
      "မိန့်": 1221,
      "ကြောင့်": 1222,
      "ce": 1223,
      "su": 1224,
      "စုတ်": 1225,
      "တကယ်": 1226,
      "ပဲ့": 1227,
      "ဘုံ": 1228,
      "မင်": 1229,
      "ယု": 1230,
      "ယက်": 1231,
      "ွံ": 1232,
      "ပြိုင်": 1233,
      "နှင့်": 1234,
      "မျဉ်း": 1235,
      "လွင်": 1236,
      "မာန်": 1237,
      "ပင်လယ်": 1238,
      "ချိုချို": 1239,
      "အပြစ်": 1240,
      "ကေ": 1241,
      "ကင်": 1242,
      "ကုတ်": 1243,
      "စိန်": 1244,
      "ဆောက်": 1245,
      "ဆန္ဒ": 1246,
      "နိုး": 1247,
      "ပင်း": 1248,
      "မုန်": 1249,
      "ရသ": 1250,
      "ရောင်း": 1251,
      "ရင့်": 1252,
      "ရိုင်း": 1253,
      "သျ": 1254,
      "သိမ်": 1255,
      "အမှတ်": 1256,
      "ွင်": 1257,
      "၂၀": 1258,
      "ကျစ်": 1259,
      "ကျွန်း": 1260,
      "မှောက်": 1261,
      "ရှူး": 1262,
      "ပျိုး": 1263,
      "ဆိုတော့": 1264,
      "လျင်": 1265,
      "ရှိတယ်": 1266,
      "ခင်မာ": 1267,
      "နိုင်ပါတယ်": 1268,
      "မယ့်": 1269,
      "ကိုယ့်": 1270,
      "က္က": 1271,
      "အောင်မြင်": 1272,
      "အပြင်": 1273,
      "ဗ္ဗ": 1274,
      "သျှ": 1275,
      "ic": 1276,
      "le": 1277,
      "se": 1278,
      "စွမ်း": 1279,
      "ဇူး": 1280,
      "တူး": 1281,
      "တွေး": 1282,
      "ဖုံး": 1283,
      "ဘိ": 1284,
      "မည်း": 1285,
      "မလုပ်": 1286,
      "ယမ်း": 1287,
      "ယဉ်": 1288,
      "ဝေး": 1289,
      "ဝှက်": 1290,
      "အံ": 1291,
      "အဖြစ်": 1292,
      "အနား": 1293,
      "အံ့": 1294,
      "အပိုင်း": 1295,
      "ွဲ့": 1296,
      "ကိုယ့်": 1297,
      "နှီး": 1298,
      "နှုန်း": 1299,
      "လှန်": 1300,
      "လှမ်း": 1301,
      "ပျော့": 1302,
      "မိမိ": 1303,
      "အဆင်": 1304,
      "ရွှင်": 1305,
      "ချင်တာ": 1306,
      "ဘယ်လို": 1307,
      "အနေနဲ့": 1308,
      "ကျေးဇူး": 1309,
      "သမ္မတ": 1310,
      "အင်္ကျီ": 1311,
      "ကမ္ဘာ": 1312,
      "ကီ": 1313,
      "ကလည်း": 1314,
      "ခွေ": 1315,
      "ဂ္": 1316,
      "ငှ": 1317,
      "စင်း": 1318,
      "စနစ်": 1319,
      "ဆန်း": 1320,
      "ဇော်": 1321,
      "ဋိ": 1322,
      "တွန်း": 1323,
      "ပရိ": 1324,
      "ဘီး": 1325,
      "ဘော်": 1326,
      "မား": 1327,
      "ယောင်း": 1328,
      "သည့်": 1329,
      "ကြို": 1330,
      "ကြွေး": 1331,
      "ပြုတ်": 1332,
      "ကျူး": 1333,
      "ဖြောင့်": 1334,
      "နှံ": 1335,
      "လာတဲ့": 1336,
      "လျှပ်": 1337,
      "ပုံစံ": 1338,
      "ပထမ": 1339,
      "ol": 1340,
      "စော": 1341,
      "ဆပ်": 1342,
      "ဉ္": 1343,
      "ညောင်": 1344,
      "တေး": 1345,
      "တောင့်": 1346,
      "ဒုံး": 1347,
      "ဖွား": 1348,
      "မံ": 1349,
      "ယော": 1350,
      "လုတ်": 1351,
      "သစ္စာ": 1352,
      "အစား": 1353,
      "ကြုံ": 1354,
      "ချော်": 1355,
      "ကျွတ်": 1356,
      "ပါပြီ": 1357,
      "ပါစေ": 1358,
      "ရှူ": 1359,
      "ခြံ": 1360,
      "ခြမ်း": 1361,
      "လှုပ်": 1362,
      "နာမည်": 1363,
      "ဆိုတဲ့": 1364,
      "ရှိနေ": 1365,
      "နားလည်": 1366,
      "ခွံ": 1367,
      "နောက်ဆုံး": 1368,
      "ers": 1369,
      "ချင်တယ်": 1370,
      "စ္ဆာ": 1371,
      "အမြတ်": 1372,
      "ဒေါင်း": 1373,
      "and": 1374,
      "ဋ္ဌ": 1375,
      "CLR": 1376,
      "for": 1377,
      "ကတိ": 1378,
      "ဂို": 1379,
      "ငေါ": 1380,
      "စို": 1381,
      "ဆိုက်": 1382,
      "ဆွေး": 1383,
      "ညို": 1384,
      "နောင်": 1385,
      "ဖင်": 1386,
      "ဖောင်း": 1387,
      "မူး": 1388,
      "မခံ": 1389,
      "မလဲ": 1390,
      "သွက်": 1391,
      "ဟု": 1392,
      "ဥ်": 1393,
      "၁၀": 1394,
      "ကြေ": 1395,
      "ချယ်": 1396,
      "ပါလား": 1397,
      "မြူ": 1398,
      "နှလုံး": 1399,
      "မျော": 1400,
      "ခြည်": 1401,
      "ခြစ်": 1402,
      "အတိုင်း": 1403,
      "အကြမ်း": 1404,
      "အချက်": 1405,
      "ဖျဉ်း": 1406,
      "န္တ": 1407,
      "ဒါပေ": 1408,
      "ဏ်း": 1409,
      "အထက်": 1410,
      "ညှိ": 1411,
      "tive": 1412,
      "ata": 1413,
      "ဖိနပ်": 1414,
      "ation": 1415,
      "pe": 1416,
      "so": 1417,
      "ကွန်": 1418,
      "ခုံး": 1419,
      "စော်": 1420,
      "ဆော်": 1421,
      "ဆော့": 1422,
      "ဉ့်": 1423,
      "တွယ်": 1424,
      "တချို့": 1425,
      "ထာ": 1426,
      "ထွန်း": 1427,
      "ဒိုင်း": 1428,
      "ပင့်": 1429,
      "ဖိတ်": 1430,
      "မဖြစ်": 1431,
      "မုန်း": 1432,
      "မွန်": 1433,
      "ယင်": 1434,
      "ယပ်": 1435,
      "ယှက်": 1436,
      "ရ်": 1437,
      "သပ်": 1438,
      "သရုပ်": 1439,
      "အုံး": 1440,
      "ကြိတ်": 1441,
      "ကျီး": 1442,
      "ကျည်း": 1443,
      "ကျွေး": 1444,
      "မှုန်": 1445,
      "မြောင်း": 1446,
      "ရှောင်": 1447,
      "ဖြုတ်": 1448,
      "တာပါ": 1449,
      "ပျဉ်": 1450,
      "လျော်": 1451,
      "မိနစ်": 1452,
      "အသေ": 1453,
      "အရိုး": 1454,
      "တိယ": 1455,
      "လျှင်": 1456,
      "ဒီလို": 1457,
      "သေချာ": 1458,
      "အာဏာ": 1459,
      "တံခါး": 1460,
      "ort": 1461,
      "anage": 1462,
      "ဒေသ": 1463,
      "pport": 1464,
      "support": 1465,
      "ဂ္ဂ": 1466,
      "sc": 1467,
      "ကရ": 1468,
      "ကွေး": 1469,
      "ကွန်း": 1470,
      "ခပ်": 1471,
      "ညင်း": 1472,
      "နံ့": 1473,
      "ဗုံး": 1474,
      "ဘူ": 1475,
      "ဘင်": 1476,
      "ဘုတ်": 1477,
      "မပြော": 1478,
      "မင်္ဂ": 1479,
      "ယျ": 1480,
      "ရသည်": 1481,
      "လစ်": 1482,
      "ဝှ": 1483,
      "သရ": 1484,
      "သွယ်": 1485,
      "အဓိ": 1486,
      "ကြွက်": 1487,
      "ချီး": 1488,
      "ဖြည်း": 1489,
      "ခြင်": 1490,
      "တစ်လုံး": 1491,
      "မှာတော့": 1492,
      "လာတာ": 1493,
      "ရှိန်": 1494,
      "အသည်း": 1495,
      "ခင်ဗျ": 1496,
      "အရင်း": 1497,
      "ကိုယ်တိုင်": 1498,
      "ဝါဒ": 1499,
      "အိမ်ထောင်": 1500,
      "ခဲ့တယ်": 1501,
      "ပုစွန်": 1502,
      "ိမ္": 1503,
      "အမြင်": 1504,
      "ဒေါသ": 1505,
      "မြှောက်": 1506,
      "မိန်းကလေး": 1507,
      "ဌေးဌေး": 1508,
      "ဒုက္ခ": 1509,
      "ဘီလူး": 1510,
      "ဌာန်": 1511,
      "ဥ်း": 1512,
      "OS": 1513,
      "ad": 1514,
      "br": 1515,
      "csc": 1516,
      "em": 1517,
      "run": 1518,
      "tu": 1519,
      "ur": 1520,
      "ype": 1521,
      "ခဏ": 1522,
      "ခမ်း": 1523,
      "စက": 1524,
      "စျ": 1525,
      "ညက်": 1526,
      "ဋ်": 1527,
      "တုပ်": 1528,
      "တည့်": 1529,
      "ထစ်": 1530,
      "ထွန်": 1531,
      "ဒိုင်": 1532,
      "နုတ်": 1533,
      "ပိန်း": 1534,
      "ပဋိ": 1535,
      "ရတဲ့": 1536,
      "ရုန်း": 1537,
      "ရထား": 1538,
      "ဝီ": 1539,
      "သိုက်": 1540,
      "သန့်": 1541,
      "သိပ်": 1542,
      "အေ": 1543,
      "အက်": 1544,
      "အိုင်": 1545,
      "အယူ": 1546,
      "ဩဇာ": 1547,
      "ကြင်": 1548,
      "ကြသည်": 1549,
      "ကျွဲ": 1550,
      "မှို": 1551,
      "ပါပဲ": 1552,
      "သူငယ်": 1553,
      "လုပ်ငန်း": 1554,
      "လွမ်း": 1555,
      "လျော့": 1556,
      "လူကြီး": 1557,
      "ဘူးလား": 1558,
      "ထားတာ": 1559,
      "သွားတယ်": 1560,
      "ကာလ": 1561,
      "ကိုယ်ပိုင်": 1562,
      "မှုန့်": 1563,
      "အကောင့်": 1564,
      "ငါးပိ": 1565,
      "သင်တန်း": 1566,
      "က္ခာ": 1567,
      "ary": 1568,
      "သေးတယ်": 1569,
      "အကျိုး": 1570,
      "ဆိုင်ရာ": 1571,
      "မူတည်": 1572,
      "ထဲက": 1573,
      "ath": 1574,
      "ဏ္ဏ": 1575,
      "အော်ဒါ": 1576,
      "000": 1577,
      "ယောက်ျားလေး": 1578,
      "ကိစ္စ": 1579,
      "အများကြီး": 1580,
      "ခင်ဗျား": 1581,
      "ကဲ့": 1582,
      "ဂီ": 1583,
      "ဂ်": 1584,
      "ဆုပ်": 1585,
      "ဇီ": 1586,
      "ဇက်": 1587,
      "ညစ်": 1588,
      "ထိပ်": 1589,
      "ပဉ္": 1590,
      "ဖီ": 1591,
      "ဖယ်": 1592,
      "ဖောင်": 1593,
      "ဖွယ်": 1594,
      "ဘုန်း": 1595,
      "မုတ်": 1596,
      "မလည်": 1597,
      "ရပါတယ်": 1598,
      "ရပြီ": 1599,
      "ဝံ": 1600,
      "ဝတ္": 1601,
      "သို": 1602,
      "သလို": 1603,
      "အင်္ဂ": 1604,
      "အမိန့်": 1605,
      "ွာ": 1606,
      "ကြိမ်": 1607,
      "ချောက်": 1608,
      "နှမ်း": 1609,
      "တွေနဲ့": 1610,
      "သူက": 1611,
      "သူတွေ": 1612,
      "လုပ်ပေး": 1613,
      "ဖြစ်လို့": 1614,
      "ပေးပြီး": 1615,
      "မိတယ်": 1616,
      "အသိ": 1617,
      "အကြော": 1618,
      "ခွန်း": 1619,
      "အမည်": 1620,
      "အထိ": 1621,
      "အကွက်": 1622,
      "သီလ": 1623,
      "မျှော်": 1624,
      "မည်သည့်": 1625,
      "ဒေါက်": 1626,
      "ထဲမှာ": 1627,
      "ဆိုတာကို": 1628,
      "ဥပဒေ": 1629,
      "စက္ကူ": 1630,
      "DE": 1631,
      "IDE": 1632,
      "ed": 1633,
      "en": 1634,
      "ft": 1635,
      "ll": 1636,
      "na": 1637,
      "type": 1638,
      "စိမ်": 1639,
      "တုံ့": 1640,
      "ထုံ": 1641,
      "ထိုင်း": 1642,
      "ဒိ": 1643,
      "ပိန်": 1644,
      "ဖဲ": 1645,
      "ဖုတ်": 1646,
      "ဖုန်း": 1647,
      "ဘွား": 1648,
      "မတော်": 1649,
      "မသာ": 1650,
      "မလား": 1651,
      "မကောင်း": 1652,
      "မနက်": 1653,
      "ရူ": 1654,
      "လန်း": 1655,
      "သွန်": 1656,
      "ဟစ်": 1657,
      "အစ်": 1658,
      "အငြ": 1659,
      "ဧည့်": 1660,
      "ကျန်": 1661,
      "ကျန်း": 1662,
      "မှီ": 1663,
      "မှောင်": 1664,
      "မြား": 1665,
      "တာနဲ့": 1666,
      "ရာသီ": 1667,
      "တစ်ဦး": 1668,
      "ပျာ": 1669,
      "ရင်တော့": 1670,
      "ခင်အေး": 1671,
      "နိုင်တယ်": 1672,
      "အရမ်း": 1673,
      "အရိပ်": 1674,
      "န္ဓာ": 1675,
      "သက်သာ": 1676,
      "အမြဲ": 1677,
      "are": 1678,
      "ari": 1679,
      "ဂျီ": 1680,
      "သင်္ကန်း": 1681,
      "မွှား": 1682,
      "မွှေး": 1683,
      "မိတ်ဆွေတို့": 1684,
      "anaged": 1685,
      "စျေး": 1686,
      "ion": 1687,
      "ဂရု": 1688,
      "ငုတ်": 1689,
      "ငရဲ": 1690,
      "ဇော": 1691,
      "ညောင်း": 1692,
      "နိမ့်": 1693,
      "ဗု": 1694,
      "မို": 1695,
      "မ့်": 1696,
      "မလို": 1697,
      "မတူ": 1698,
      "ယိုး": 1699,
      "ရဟ": 1700,
      "ရီး": 1701,
      "သနာ": 1702,
      "သွတ်": 1703,
      "အပ": 1704,
      "အရေ": 1705,
      "အဖျား": 1706,
      "အပျို": 1707,
      "့မယ်": 1708,
      "ကြဲ": 1709,
      "ပြစ်": 1710,
      "ချွဲ": 1711,
      "နှပ်": 1712,
      "လုပ်နေ": 1713,
      "ဖြစ်ပြီး": 1714,
      "အတန်း": 1715,
      "လျာ": 1716,
      "ပေးပါ": 1717,
      "ပေးထား": 1718,
      "လိုက်တယ်": 1719,
      "အရည်": 1720,
      "ဘာညာ": 1721,
      "အစဉ်": 1722,
      "ခုနစ်": 1723,
      "ဖျောက်": 1724,
      "သက်သေ": 1725,
      "အမဲ": 1726,
      "လွှား": 1727,
      "သင့်": 1728,
      "အလံ": 1729,
      "မဟုတ်ဘူး": 1730,
      "အနု": 1731,
      "int": 1732,
      "ဒုတိယ": 1733,
      "မေတ္တာ": 1734,
      "ညွှန်း": 1735,
      "ိမ္မာ": 1736,
      "VB": 1737,
      "dow": 1738,
      "ex": 1739,
      "ri": 1740,
      "to": 1741,
      "us": 1742,
      "ကနေ": 1743,
      "ဂူ": 1744,
      "စုပ်": 1745,
      "ဆွတ်": 1746,
      "ဏိ": 1747,
      "ဏန်း": 1748,
      "တွတ်": 1749,
      "ထောင်း": 1750,
      "နော": 1751,
      "ပူး": 1752,
      "ဖယောင်း": 1753,
      "ဘတ်": 1754,
      "မို့": 1755,
      "လိုး": 1756,
      "ဝပ်": 1757,
      "အီ": 1758,
      "အောင်း": 1759,
      "အစာ": 1760,
      "အလေး": 1761,
      "အမျှ": 1762,
      "အက္ခ": 1763,
      "အခွင့်": 1764,
      "ဧက": 1765,
      "ာန်": 1766,
      "ကြန်": 1767,
      "ကြံ့": 1768,
      "ပြောက်": 1769,
      "ကျိ": 1770,
      "ရှက်": 1771,
      "ရှပ်": 1772,
      "ရှစ်": 1773,
      "ရှုံး": 1774,
      "နှိုင်း": 1775,
      "တွေရဲ့": 1776,
      "လက်သည်း": 1777,
      "တစ်ခါ": 1778,
      "လှိုင်း": 1779,
      "သူများ": 1780,
      "သည်က": 1781,
      "လျက်": 1782,
      "လေယာဉ်": 1783,
      "အသင်း": 1784,
      "အသစ်": 1785,
      "ရေးသား": 1786,
      "တို့ကို": 1787,
      "သွားမှာ": 1788,
      "သွားပြီ": 1789,
      "အရူး": 1790,
      "ဖျင်း": 1791,
      "လျှံ": 1792,
      "လျှော": 1793,
      "ခဲ့ကြ": 1794,
      "အကဲ": 1795,
      "အခဲ": 1796,
      "ညှင်း": 1797,
      "lass": 1798,
      "ရုပ်ရှင်": 1799,
      "ငြိမ်": 1800,
      "စွန့်": 1801,
      "ဂျာ": 1802,
      "ကူညီ": 1803,
      "လုံခြုံ": 1804,
      "compile": 1805,
      "လပ်က": 1806,
      "libr": 1807,
      "ရပါလိမ့်မယ်": 1808,
      "form": 1809,
      "ဂိုဏ်း": 1810,
      "မင်္ဂလာ": 1811,
      "ture": 1812,
      "မူတည်ပြီး": 1813,
      "ဗုဒ္ဓ": 1814,
      "data": 1815,
      "is": 1816,
      "ကက်": 1817,
      "စွတ်": 1818,
      "စခန်း": 1819,
      "ဆဲ": 1820,
      "ဆွ": 1821,
      "တနာ": 1822,
      "ဒိုး": 1823,
      "ဖု": 1824,
      "ဖွတ်": 1825,
      "ဗုံ": 1826,
      "ဗွေ": 1827,
      "ဘောင်": 1828,
      "မဆို": 1829,
      "ယင်း": 1830,
      "ယွန်း": 1831,
      "ဝဋ်": 1832,
      "သန": 1833,
      "သ်": 1834,
      "သော့": 1835,
      "သတ္တိ": 1836,
      "အရွယ်": 1837,
      "ချဲ့": 1838,
      "ချွန်": 1839,
      "ကျိတ်": 1840,
      "မြိုင်": 1841,
      "ဖြန်း": 1842,
      "ဖြုန်း": 1843,
      "နှင်": 1844,
      "တာရာ": 1845,
      "တာဝန်": 1846,
      "လုပ်တာ": 1847,
      "ပေးမယ်": 1848,
      "လာတယ်": 1849,
      "လူတွေ": 1850,
      "လေးတွေ": 1851,
      "ရှိတဲ့": 1852,
      "အသေး": 1853,
      "ထားတယ်": 1854,
      "ဘာမှ": 1855,
      "အချင်း": 1856,
      "မင်းသမီး": 1857,
      "သက်ဆိုင်ရာ": 1858,
      "အာရုံ": 1859,
      "ခဲ့တဲ့": 1860,
      "ခဲ့သည်": 1861,
      "အထည်": 1862,
      "ဖွာ": 1863,
      "ချိုင့်": 1864,
      "ညှော်": 1865,
      "ပေမယ့်": 1866,
      "အပြည့်": 1867,
      "စီးပွား": 1868,
      "time": 1869,
      "သို့သော်": 1870,
      "ile": 1871,
      "ကွပ်": 1872,
      "ပြောင်းလဲ": 1873,
      "န္ဒြ": 1874,
      "ငါ့": 1875,
      "အင်္ဂါ": 1876,
      "လှေကား": 1877,
      "ကန့်လန့်": 1878,
      "အဆင်ပြေ": 1879,
      "အက္ခရာ": 1880,
      "Eng": 1881,
      "TS": 1882,
      "ab": 1883,
      "ach": 1884,
      "di": 1885,
      "lo": 1886,
      "pa": 1887,
      "path": 1888,
      "ror": 1889,
      "vi": 1890,
      "vers": 1891,
      "yst": 1892,
      "ကုံး": 1893,
      "ဂုံ": 1894,
      "စူ": 1895,
      "ဆည်": 1896,
      "ဆည်း": 1897,
      "ဆွယ်": 1898,
      "ညွတ်": 1899,
      "ညံ့": 1900,
      "တက": 1901,
      "ထီ": 1902,
      "ထင်း": 1903,
      "နွမ်း": 1904,
      "ပုံး": 1905,
      "ပွက်": 1906,
      "ပမာ": 1907,
      "ဖွဲ": 1908,
      "ဗာ": 1909,
      "ဗီ": 1910,
      "မောက်": 1911,
      "မနေ့": 1912,
      "ရော်": 1913,
      "ရဘူး": 1914,
      "ရအောင်": 1915,
      "လင့်": 1916,
      "သက": 1917,
      "သုန်": 1918,
      "ဟီ": 1919,
      "အခံ": 1920,
      "အရင်": 1921,
      "အနည်း": 1922,
      "အခြား": 1923,
      "အလွန်": 1924,
      "အရှိန်": 1925,
      "ကြပါ": 1926,
      "ကြွား": 1927,
      "ပြဲ": 1928,
      "ပြို": 1929,
      "ချန်": 1930,
      "ချား": 1931,
      "ကျူ": 1932,
      "မြည်": 1933,
      "ရှော့": 1934,
      "ကိုတော့": 1935,
      "လက်ခ": 1936,
      "လှိုင်": 1937,
      "ပျင်း": 1938,
      "ပျောင်း": 1939,
      "တော့ဘူး": 1940,
      "သည်လည်း": 1941,
      "ဖြစ်နေ": 1942,
      "ဖြစ်တယ်": 1943,
      "လာဘ": 1944,
      "ခံစား": 1945,
      "ကာယ": 1946,
      "တိမ်း": 1947,
      "ဦးစီး": 1948,
      "ပါးစပ်": 1949,
      "လျှို": 1950,
      "လျှော့": 1951,
      "ပြန်သည်": 1952,
      "သက်သက်": 1953,
      "သမင်": 1954,
      "အာမခံ": 1955,
      "အဆင့်": 1956,
      "အကုန်": 1957,
      "ပုဒ်": 1958,
      "စစ်ဆေး": 1959,
      "ဘယ်လောက်": 1960,
      "သီချင်း": 1961,
      "အလင်း": 1962,
      "တပ်ဖွဲ့": 1963,
      "မ္မာ": 1964,
      "ဂျင်": 1965,
      "ment": 1966,
      "ကုဒ်": 1967,
      "ခရု": 1968,
      "ပိုက်ဆံ": 1969,
      "မြှုပ်": 1970,
      "ရှင်းပြ": 1971,
      "ရာဇ်": 1972,
      "ဥပမာ": 1973,
      "ဌာန": 1974,
      "word": 1975,
      "all": 1976,
      "lish": 1977,
      "ပလ္": 1978,
      "ရွေးချယ်": 1979,
      "ညွှန်": 1980,
      "ဂေါ်": 1981,
      "soft": 1982,
      "ပဉ္စ": 1983,
      "native": 1984,
      "လပ်ကီး": 1985,
      "န္ဒြေ": 1986,
      "English": 1987,
      "ystem": 1988,
      "ig": 1989,
      "ခူး": 1990,
      "စန်း": 1991,
      "စုန်း": 1992,
      "ဆို့": 1993,
      "ဆန့်": 1994,
      "တြ": 1995,
      "တင့်": 1996,
      "ထိုက်": 1997,
      "ပရ": 1998,
      "ပပ်": 1999,
      "ပွန်း": 2000,
      "မကြီး": 2001,
      "မွန်း": 2002,
      "မွမ်း": 2003,
      "ယီး": 2004,
      "ယိုင်": 2005,
      "ရန်း": 2006,
      "ရည်း": 2007,
      "သယ်": 2008,
      "သိုင်း": 2009,
      "သရေ": 2010,
      "သမာ": 2011,
      "သေ့": 2012,
      "သပိတ်": 2013,
      "သဘင်": 2014,
      "ဟေ": 2015,
      "အပေါက်": 2016,
      "အနက်": 2017,
      "အရှေ့": 2018,
      "ည့်": 2019,
      "ချွန်း": 2020,
      "ပါရ": 2021,
      "နှောက်": 2022,
      "နှောင်း": 2023,
      "နှိုက်": 2024,
      "မျဥ်း": 2025,
      "နေပြီ": 2026,
      "လက်မှတ်": 2027,
      "လက်ဖက်": 2028,
      "လက်ဝါး": 2029,
      "လက်နက်": 2030,
      "တစ်ဖက်": 2031,
      "လှဲ": 2032,
      "လှယ်": 2033,
      "စာမေး": 2034,
      "ရေခဲ": 2035,
      "စားပွဲ": 2036,
      "အတော်": 2037,
      "အတွေး": 2038,
      "လူ့": 2039,
      "သာသနာ": 2040,
      "မျက်ရည်": 2041,
      "ခင်လှ": 2042,
      "နိုင်တဲ့": 2043,
      "အစု": 2044,
      "င်္ကာ": 2045,
      "န္ဓ": 2046,
      "မင်းသား": 2047,
      "ရည်ရွယ်": 2048,
      "ဇာတိ": 2049,
      "ခဲ့ပြီး": 2050,
      "အမွေ": 2051,
      "ဗျိုင်း": 2052,
      "အဆက်": 2053,
      "အထူး": 2054,
      "သီးခြား": 2055,
      "ရွှန်း": 2056,
      "စ္ဆ": 2057,
      "အမြှ": 2058,
      "အလကား": 2059,
      "တန်ဖိုး": 2060,
      "နံပါတ်": 2061,
      "ပစ်ခတ်": 2062,
      "ရိယ": 2063,
      "တွန့်": 2064,
      "အဲဒီလို": 2065,
      "ကြွပ်": 2066,
      "ပက်လက်": 2067,
      "အဝေး": 2068,
      "တုန်းက": 2069,
      "စဉ်းစား": 2070,
      "ကျွန်ုပ်တို့": 2071,
      "သတ္တဝါ": 2072,
      "ဆွေးနွေး": 2073,
      "ဝတ္ထု": 2074,
      "အင်္ဂလိပ်": 2075,
      "လာဘ်": 2076,
      "ပလ္လင်": 2077,
      "စာမေးပွဲ": 2078,
      "20": 2079,
      "FCL": 2080,
      "System": 2081,
      "managed": 2082,
      "og": 2083,
      "ကုံ": 2084,
      "ငုံ": 2085,
      "စတင်": 2086,
      "စရိတ်": 2087,
      "ဇယ်": 2088,
      "ညံ": 2089,
      "တကျ": 2090,
      "တန့်": 2091,
      "တွန်": 2092,
      "တကာ": 2093,
      "ထေ": 2094,
      "ထိတ်": 2095,
      "ထိမ်": 2096,
      "ဒွ": 2097,
      "ဒို": 2098,
      "နဂ": 2099,
      "နင့်": 2100,
      "နွှ": 2101,
      "ပံ့": 2102,
      "ပွေ့": 2103,
      "ဖေ": 2104,
      "ဖော": 2105,
      "ဗိုင်း": 2106,
      "ဗလာ": 2107,
      "ဘိုး": 2108,
      "မကျ": 2109,
      "မွဲ": 2110,
      "မွတ်": 2111,
      "ယှ": 2112,
      "ယစ်": 2113,
      "ယွင်း": 2114,
      "လိုင်း": 2115,
      "လက္ခ": 2116,
      "သောင်": 2117,
      "သရက်": 2118,
      "သွင်": 2119,
      "ဟက်": 2120,
      "ဟပ်": 2121,
      "ဟောက်": 2122,
      "အိုက်": 2123,
      "အလျ": 2124,
      "အလိုက်": 2125,
      "အလုံး": 2126,
      "အောင့်": 2127,
      "အပါး": 2128,
      "အပင်": 2129,
      "အဘယ်": 2130,
      "အပေါင်း": 2131,
      "အမှန်": 2132,
      "အပျော်": 2133,
      "အလွယ်": 2134,
      "ာယ်": 2135,
      "ပြူး": 2136,
      "ပြန့်": 2137,
      "ချူ": 2138,
      "ကျတော့": 2139,
      "ကျိန်": 2140,
      "ကျဉ်း": 2141,
      "ကျနော်": 2142,
      "ပါတီ": 2143,
      "ပါသေးတယ်": 2144,
      "မြဲ": 2145,
      "ကိုပဲ": 2146,
      "နှဲ": 2147,
      "နှတ်": 2148,
      "တာကို": 2149,
      "ခြိုက်": 2150,
      "ရာဇာ": 2151,
      "လက်စ": 2152,
      "တစ်ရာ": 2153,
      "တစ်ပါး": 2154,
      "တစ်နေ့": 2155,
      "လှပ်": 2156,
      "လှောင်": 2157,
      "လှိုက်": 2158,
      "သူတော်": 2159,
      "သူရဲ": 2160,
      "တော့မယ်": 2161,
      "သားရေ": 2162,
      "အတ္": 2163,
      "ဆိုလို": 2164,
      "ပေးပါတယ်": 2165,
      "ပေးထားတဲ့": 2166,
      "လူမျိုး": 2167,
      "အသာ": 2168,
      "အသီး": 2169,
      "ရွံ": 2170,
      "လိုချင်": 2171,
      "လိုအပ်": 2172,
      "နိုင်မှာ": 2173,
      "သွားပါ": 2174,
      "သိက္ခာ": 2175,
      "အစီ": 2176,
      "အချုပ်": 2177,
      "ဝင်စား": 2178,
      "လျှော်": 2179,
      "တိုက်ဒုံး": 2180,
      "နောက်ပိုင်း": 2181,
      "တ္တရ": 2182,
      "များစွာ": 2183,
      "သေနတ်": 2184,
      "ခဲ့တာ": 2185,
      "ဗျူ": 2186,
      "အဆုံး": 2187,
      "အကောက်": 2188,
      "ရွှတ်": 2189,
      "ပုဆိုး": 2190,
      "ဟာရ": 2191,
      "စက်မှာ": 2192,
      "lat": 2193,
      "lation": 2194,
      "arp": 2195,
      "arch": 2196,
      "အကျယ်": 2197,
      "အကျင့်": 2198,
      "ရိယာ": 2199,
      "သင်္ကြန်": 2200,
      "ရပ်တည်": 2201,
      "တစ်ခုကို": 2202,
      "ခရမ်း": 2203,
      "အဖော်": 2204,
      "rosoft": 2205,
      "ine": 2206,
      "indow": 2207,
      "အကို့": 2208,
      "ess": 2209,
      "ity": 2210,
      "itec": 2211,
      "အိအိ": 2212,
      "အရှက်": 2213,
      "သန္ဓ": 2214,
      "လိင်": 2215,
      "sharp": 2216,
      "ဏ္ဍာ": 2217,
      "ယုတ်မာ": 2218,
      "icrosoft": 2219,
      "ဒါပေမယ့်": 2220,
      "able": 2221,
      "ရှော့တိုက်ဒုံး": 2222,
      "လက္ခဏာ": 2223,
      "architec": 2224,
      "ကတည်း": 2225,
      "ကမ္မ": 2226,
      "ခူ": 2227,
      "ခလုတ်": 2228,
      "ဃာ": 2229,
      "ငုပ်": 2230,
      "စတာ": 2231,
      "စိပ်": 2232,
      "ဆံ့": 2233,
      "ဏီ": 2234,
      "တိန်": 2235,
      "တလင်း": 2236,
      "ထံ": 2237,
      "ထော်": 2238,
      "ထွင်း": 2239,
      "ဒြ": 2240,
      "နင်": 2241,
      "နူး": 2242,
      "နွဲ့": 2243,
      "ဖုန်": 2244,
      "မက": 2245,
      "မမ": 2246,
      "မိုင်း": 2247,
      "မကြာ": 2248,
      "မွေ့": 2249,
      "မလွယ်": 2250,
      "မဏိ": 2251,
      "ယခု": 2252,
      "ရိန်": 2253,
      "လ္": 2254,
      "ဝေါ": 2255,
      "သက္က": 2256,
      "အယ်": 2257,
      "အမ်း": 2258,
      "အဆို": 2259,
      "အနောက်": 2260,
      "အကောင်း": 2261,
      "အမှား": 2262,
      "ဣန္ဒြေ": 2263,
      "ဦး": 2264,
      "ဥပု": 2265,
      "ဥစ္စာ": 2266,
      "ကြူ": 2267,
      "ချိပ်": 2268,
      "ကျကျ": 2269,
      "မှည့်": 2270,
      "ပါသည်": 2271,
      "ဖြဲ": 2272,
      "ဖြိုး": 2273,
      "တာပေါ့": 2274,
      "လှော်": 2275,
      "စာပေ": 2276,
      "ပျဉ်း": 2277,
      "သူကြီး": 2278,
      "သူခိုး": 2279,
      "လုပ်ပြီး": 2280,
      "လွင့်": 2281,
      "မှာပါ": 2282,
      "ဖြစ်သည်": 2283,
      "ဖြစ်ဖြစ်": 2284,
      "နာမ်": 2285,
      "ပြီးသား": 2286,
      "ခင်နှင်း": 2287,
      "အေးဆေး": 2288,
      "အရောင်": 2289,
      "အစုံ": 2290,
      "အစိုး": 2291,
      "အစွဲ": 2292,
      "အစေ့": 2293,
      "အစွန်း": 2294,
      "နားမလည်": 2295,
      "အားနည်း": 2296,
      "ဖျာ": 2297,
      "ဖျင်": 2298,
      "ဖျော်": 2299,
      "သေတ္တာ": 2300,
      "ကောင်းကောင်း": 2301,
      "တရုတ်": 2302,
      "စိမ့်": 2303,
      "ခဲ့ဘူး": 2304,
      "အထင်": 2305,
      "အကူ": 2306,
      "ငါးပါး": 2307,
      "လမ်းကြောင်း": 2308,
      "ိမိတ်": 2309,
      "တူညီ": 2310,
      "သီတင်း": 2311,
      "နှာခေါင်း": 2312,
      "အလယ်": 2313,
      "တန်ဆာ": 2314,
      "ဒေါ်": 2315,
      "ဒေါင်": 2316,
      "လင်မယား": 2317,
      "မဟုတ်ပါဘူး": 2318,
      "ရှေ့မှာ": 2319,
      "အဲဒါ": 2320,
      "ance": 2321,
      "မြှောင်": 2322,
      "နိဗ္ဗ": 2323,
      "ate": 2324,
      "ဖန်တီး": 2325,
      "အခုလို": 2326,
      "ရာဇဝတ်": 2327,
      "ဆင်းရဲ": 2328,
      "ဆတ်ဆတ်": 2329,
      "နေရာမှာ": 2330,
      "အားလုံးကို": 2331,
      "သတ္တု": 2332,
      "ဇ္ဈ": 2333,
      "ကေသီ": 2334,
      "ပထမဆုံး": 2335,
      "စ္ဆာန်": 2336,
      "နံ့သာ": 2337,
      "သန္ဓေ": 2338,
      "ဥပုသ်": 2339,
      "#.": 2340,
      "78": 2341,
      "AS": 2342,
      "Class": 2343,
      "Csharp": 2344,
      "IL": 2345,
      "Li": 2346,
      "MS": 2347,
      "ac": 2348,
      "app": 2349,
      "ase": 2350,
      "bo": 2351,
      "cation": 2352,
      "ey": 2353,
      "king": 2354,
      "kpa": 2355,
      "mor": 2356,
      "ni": 2357,
      "per": 2358,
      "plat": 2359,
      "ware": 2360,
      "ကော့": 2361,
      "ကရင်": 2362,
      "ကတိုး": 2363,
      "ကွေ့": 2364,
      "ခန္ဓာ": 2365,
      "ဂံ": 2366,
      "ဂိုး": 2367,
      "ဂဏန်း": 2368,
      "ငတ်": 2369,
      "စွက်": 2370,
      "ဇင်": 2371,
      "ဇယား": 2372,
      "တယောက်": 2373,
      "တပြား": 2374,
      "ထန်": 2375,
      "ထယ်": 2376,
      "ဒသက": 2377,
      "ဓူ": 2378,
      "နွေ": 2379,
      "နိမိတ်": 2380,
      "ဖဲ့": 2381,
      "ဗလ": 2382,
      "ဘိန်း": 2383,
      "ဘွဲ့": 2384,
      "မနေ": 2385,
      "မကင်း": 2386,
      "ယုန်": 2387,
      "ယိမ်း": 2388,
      "ရရှိ": 2389,
      "ရမလဲ": 2390,
      "လိုင်": 2391,
      "ဝရမ်း": 2392,
      "သခ": 2393,
      "သလား": 2394,
      "သွန်း": 2395,
      "ဟူ": 2396,
      "အညွန့်": 2397,
      "၀၀": 2398,
      "၃၀": 2399,
      "ပြွတ်": 2400,
      "ချိ": 2401,
      "ချင့်": 2402,
      "ကျုပ်": 2403,
      "ကျိန်း": 2404,
      "မှော်": 2405,
      "မှိတ်": 2406,
      "မှိုင်း": 2407,
      "ရှမ်း": 2408,
      "ရှိုက်": 2409,
      "ရှဉ့်": 2410,
      "ဖြီး": 2411,
      "ဖြူး": 2412,
      "နှေး": 2413,
      "နှယ်": 2414,
      "နေကြ": 2415,
      "တွေသည်": 2416,
      "ရာထူး": 2417,
      "လက်ကိုင်": 2418,
      "လှေး": 2419,
      "စာရေး": 2420,
      "ပျော": 2421,
      "လုပ်တဲ့": 2422,
      "လုပ်သား": 2423,
      "လုပ်နိုင်": 2424,
      "တော့မှ": 2425,
      "တော့ပါဘူး": 2426,
      "မှာပဲ": 2427,
      "ဖြစ်လာ": 2428,
      "အတိတ်": 2429,
      "ဆိုသည်": 2430,
      "လေးပါး": 2431,
      "လေးဖက်": 2432,
      "ခံတွင်း": 2433,
      "မိသည်": 2434,
      "မိကျောင်း": 2435,
      "လိုက်ရ": 2436,
      "လိုက်တဲ့": 2437,
      "ရှိပါတယ်": 2438,
      "အသင့်": 2439,
      "အသွေး": 2440,
      "ရေးပြီး": 2441,
      "ရွပ်": 2442,
      "တင်ပေး": 2443,
      "ထားရင်": 2444,
      "ခင်လေး": 2445,
      "ဘာလို့": 2446,
      "အစည်း": 2447,
      "အချို": 2448,
      "အားဖြင့်": 2449,
      "တိုက်ရိုက်": 2450,
      "ပါတယ်ဗျ": 2451,
      "န္တရ": 2452,
      "ဒါကြောင့်": 2453,
      "တံဆိပ်": 2454,
      "အမေ့": 2455,
      "ခေါင်းဆောင်": 2456,
      "လွှမ်း": 2457,
      "အဆီ": 2458,
      "error": 2459,
      "comm": 2460,
      "ချင်ဘူး": 2461,
      "အခင်း": 2462,
      "ဘယ်သူ": 2463,
      "ညှိုး": 2464,
      "သင်ယူ": 2465,
      "စေတီ": 2466,
      "ငြိ": 2467,
      "ွှာ": 2468,
      "သေးဘူး": 2469,
      "အကျဉ်း": 2470,
      "လိပ်ပြာ": 2471,
      "တတ်တဲ့": 2472,
      "အဖိုး": 2473,
      "des": 2474,
      "ထင်ထင်": 2475,
      "အနီး": 2476,
      "ဖူးတယ်": 2477,
      "မိတ်ဆက်": 2478,
      "မရှိဘူး": 2479,
      "အရေးကြီး": 2480,
      "ection": 2481,
      "ဘုရင်": 2482,
      "တစ်ယောက်တည်း": 2483,
      "CLS": 2484,
      "vel": 2485,
      "ထမ်းပိုး": 2486,
      "ချမ်းသာ": 2487,
      "ရုတ်ရုတ်": 2488,
      "သန္တာ": 2489,
      "ဇ္ဇ": 2490,
      "အခြေခံ": 2491,
      "ငေါက်": 2492,
      "အဓိက": 2493,
      "အကောင့်ထဲ": 2494,
      "ကဲ့သို့": 2495,
      "llection": 2496,
      "ရူပ": 2497,
      "inter": 2498,
      "user": 2499,
      "library": 2500,
      "version": 2501,
      "အင်္ဂလိပ်စာ": 2502,
      "202": 2503,
      "နဂါး": 2504,
      "ယှဉ်": 2505,
      "architecture": 2506,
      "နိဗ္ဗာန်": 2507,
      "78000": 2508,
      "ASP": 2509,
      "MSIL": 2510,
      "eyword": 2511,
      "kpay": 2512,
      "platform": 2513,
      "တပြားမှ": 2514,
      "mar": 2515,
      "ဂိတ်": 2516,
      "ငံ့": 2517,
      "စိုင်": 2518,
      "စိုင်း": 2519,
      "စတု": 2520,
      "ဆယ့်": 2521,
      "ဇ်": 2522,
      "တျ": 2523,
      "တုံ": 2524,
      "တလေ": 2525,
      "တေ့": 2526,
      "တကူ": 2527,
      "ထော": 2528,
      "ထွင်": 2529,
      "ဒူ": 2530,
      "ဒါး": 2531,
      "ပွေ": 2532,
      "ပုန်": 2533,
      "ပဒေ": 2534,
      "ဖေး": 2535,
      "ဗော": 2536,
      "ဘိုင်": 2537,
      "ဘဝင်": 2538,
      "ဘဏ်": 2539,
      "မနာ": 2540,
      "မလေး": 2541,
      "မတင်": 2542,
      "မတိုင်": 2543,
      "မဆုံး": 2544,
      "မထင်": 2545,
      "ရိုင်": 2546,
      "ရွဲ": 2547,
      "ရွေ့": 2548,
      "ရစ္ဆာန်": 2549,
      "လော်": 2550,
      "ဝု": 2551,
      "ဝိုင်": 2552,
      "ဝင့်": 2553,
      "သလဲ": 2554,
      "သကြား": 2555,
      "ဟိ": 2556,
      "ဟဲ": 2557,
      "ဟော်": 2558,
      "အမ်": 2559,
      "အတာ": 2560,
      "အပြီး": 2561,
      "အထား": 2562,
      "အကာ": 2563,
      "အပြန်": 2564,
      "အပြော": 2565,
      "အပတ်": 2566,
      "အညီ": 2567,
      "အလွတ်": 2568,
      "အလျှောက်": 2569,
      "အပုပ်": 2570,
      "အဘိ": 2571,
      "ဥပါ": 2572,
      "ုဘ": 2573,
      "ကြိုင်": 2574,
      "ကြည်း": 2575,
      "ပြုပ်": 2576,
      "ချည့်": 2577,
      "ကျဲ": 2578,
      "ကျို": 2579,
      "ကျိုက်": 2580,
      "မှင်": 2581,
      "မှမဟုတ်": 2582,
      "မ်းအနား": 2583,
      "ပါနဲ့": 2584,
      "မြီ": 2585,
      "မြုံ": 2586,
      "မြူး": 2587,
      "မြိတ်": 2588,
      "ရှောက်": 2589,
      "ဖြန့်": 2590,
      "နှော": 2591,
      "နှိမ်": 2592,
      "နေဝင်": 2593,
      "နေကုန်": 2594,
      "နေကြတယ်": 2595,
      "တာပဲ": 2596,
      "ခြွေ": 2597,
      "ခြင်္": 2598,
      "တစ်ပိုင်း": 2599,
      "လှီး": 2600,
      "ပျူ": 2601,
      "အတင်း": 2602,
      "အတောင်": 2603,
      "ပြီးရင်": 2604,
      "လူပျို": 2605,
      "အသုဘ": 2606,
      "သာယာ": 2607,
      "မာန": 2608,
      "မီးလောင်": 2609,
      "တို့သည်": 2610,
      "ထားထား": 2611,
      "ခင်ဌေး": 2612,
      "စိတ်ပြေ": 2613,
      "အရံ": 2614,
      "အရက်": 2615,
      "ကာသ": 2616,
      "ကာကွယ်": 2617,
      "တိတိ": 2618,
      "တိရစ္ဆာန်": 2619,
      "ကိုယ်က": 2620,
      "ကိုယ်စား": 2621,
      "အစိမ်း": 2622,
      "အကြား": 2623,
      "အကြွေး": 2624,
      "လျှိုး": 2625,
      "ခြေရာ": 2626,
      "ခြေလှမ်း": 2627,
      "န္နဲ": 2628,
      "ဒါန်း": 2629,
      "ဒါမှမဟုတ်": 2630,
      "ဇာတာ": 2631,
      "အမူ": 2632,
      "အမွှ": 2633,
      "ခေါင်းစဉ်": 2634,
      "အထွေ": 2635,
      "ဖွပ်": 2636,
      "ရိုးရိုး": 2637,
      "အခွန်": 2638,
      "အခမ်းအနား": 2639,
      "ညှာ": 2640,
      "အမြန်": 2641,
      "သင်ကြား": 2642,
      "ဘောလုံး": 2643,
      "ရက်ကန်း": 2644,
      "အပြုံး": 2645,
      "စေတနာ": 2646,
      "မျှင်": 2647,
      "မျှော": 2648,
      "ငြာ": 2649,
      "ငြင်း": 2650,
      "သတ်မှတ်": 2651,
      "ရောက်ရှိ": 2652,
      "ကောင်စီ": 2653,
      "ဆင်ခြေ": 2654,
      "စီမံ": 2655,
      "အချိန်တွေ": 2656,
      "ဝန်ထမ်း": 2657,
      "ဝမ်းသာ": 2658,
      "ပြင်ဆင်": 2659,
      "ကျောင်းသား": 2660,
      "ထွေးထွေး": 2661,
      "ကလပ်": 2662,
      "နှုတ်ခမ်း": 2663,
      "လွတ်လပ်": 2664,
      "ငှက်ပျော": 2665,
      "ပိန္နဲ": 2666,
      "အဲ့လို": 2667,
      "သူမအား": 2668,
      "အရာရှိ": 2669,
      "ခိုင်ခိုင်": 2670,
      "ရတာလဲ": 2671,
      "ဋ္ဌာ": 2672,
      "ဋ္ဌာန်": 2673,
      "မတ်တတ်": 2674,
      "ချိတ်ဆက်": 2675,
      "အကြံပေး": 2676,
      "ဆုတောင်း": 2677,
      "မုန်လာ": 2678,
      "ငှာ": 2679,
      "န္တရာ": 2680,
      "ယျာ": 2681,
      "ဖြည်းဖြည်း": 2682,
      "လုပ်ငန်းစဉ်": 2683,
      "ဇီဝ": 2684,
      "ကျန်းမာ": 2685,
      "ရဟန်း": 2686,
      "လုံခြုံရေး": 2687,
      "အသေးစိတ်": 2688,
      "လက်ခုပ်": 2689,
      "ign": 2690,
      "စ္ဆေ": 2691,
      "သက္ကရာဇ်": 2692,
      "အစိုးရ": 2693,
      "သခွား": 2694,
      "ပဒေသာ": 2695,
      "ခြင်္သေ့": 2696,
      "An": 2697,
      "Data": 2698,
      "EL": 2699,
      "For": 2700,
      "IO": 2701,
      "Int": 2702,
      "IEL": 2703,
      "Log": 2704,
      "Microsoft": 2705,
      "Sp": 2706,
      "St": 2707,
      "Window": 2708,
      "base": 2709,
      "cess": 2710,
      "eg": 2711,
      "file": 2712,
      "ho": 2713,
      "ilation": 2714,
      "keyword": 2715,
      "ling": 2716,
      "ron": 2717,
      "vance": 2718,
      "ကစ": 2719,
      "ကန": 2720,
      "ကလို": 2721,
      "ခလောက်": 2722,
      "ဇောက်": 2723,
      "ဇိမ်": 2724,
      "ဇွတ်": 2725,
      "ညင်": 2726,
      "ညနေ": 2727,
      "တန": 2728,
      "တခြား": 2729,
      "တကွ": 2730,
      "ထို့": 2731,
      "ထွား": 2732,
      "ထွာ": 2733,
      "ဒယ်": 2734,
      "ဒီး": 2735,
      "နဝါ": 2736,
      "နဖူး": 2737,
      "ပခုံး": 2738,
      "ဖော့": 2739,
      "ဖရုံ": 2740,
      "ဗိုက်": 2741,
      "ဗဟို": 2742,
      "ဘား": 2743,
      "ဘောက်": 2744,
      "ဘဏ္ဍာ": 2745,
      "မိုင်": 2746,
      "မလှ": 2747,
      "မသေ": 2748,
      "မတန်": 2749,
      "ယမ": 2750,
      "ယီ": 2751,
      "ရတ်": 2752,
      "ရတု": 2753,
      "လိမ္မာ": 2754,
      "ဝတီ": 2755,
      "သပြေ": 2756,
      "သဒ္": 2757,
      "ဟတ်": 2758,
      "ဟူး": 2759,
      "ဟိတ်": 2760,
      "ဟုန်း": 2761,
      "အော": 2762,
      "အကြီး": 2763,
      "အမိ": 2764,
      "အမျက်": 2765,
      "အနိုင်": 2766,
      "အဝင်": 2767,
      "အနှစ်": 2768,
      "အရှင်": 2769,
      "အတွေ့": 2770,
      "အပိတ်": 2771,
      "အခြောက်": 2772,
      "အဖြေ": 2773,
      "ကြုတ်": 2774,
      "ကြော့": 2775,
      "ကြွယ်": 2776,
      "ကြပါတယ်": 2777,
      "ကြရော": 2778,
      "ချုံး": 2779,
      "ကျွက်": 2780,
      "ကျွံ": 2781,
      "ပါလိမ့်မယ်": 2782,
      "ပါကွာ": 2783,
      "မြောင်": 2784,
      "ရှုံ့": 2785,
      "ဖြင့်": 2786,
      "နှောင်": 2787,
      "နေရ": 2788,
      "နေမှာ": 2789,
      "နေဂျာ": 2790,
      "လက်ခံ": 2791,
      "လက်ရေး": 2792,
      "လက်တွေ့": 2793,
      "တစ်ကိုယ်": 2794,
      "ပျံ့": 2795,
      "ရေစက်": 2796,
      "စားသောက်": 2797,
      "တော့ကီ": 2798,
      "မှာလား": 2799,
      "မှာလဲ": 2800,
      "ဖြစ်စေ": 2801,
      "ဖြစ်စဉ်": 2802,
      "အတိ": 2803,
      "အတက်": 2804,
      "အတန်": 2805,
      "အတား": 2806,
      "အတတ်": 2807,
      "အတိုး": 2808,
      "ဆိုလျှင်": 2809,
      "ပေးတာ": 2810,
      "ပေးခြင်း": 2811,
      "လာပြီး": 2812,
      "လာပြီ": 2813,
      "လူမှု": 2814,
      "လေးတွေကို": 2815,
      "နဲ့ပဲ": 2816,
      "ရှိရင်": 2817,
      "လေလံ": 2818,
      "တော်လှန်": 2819,
      "မီးယပ်": 2820,
      "ထားပါတယ်": 2821,
      "မျက်လုံး": 2822,
      "ခင်မေ": 2823,
      "အေးမြင့်": 2824,
      "နိုင်မယ်": 2825,
      "နိုင်ဖို့": 2826,
      "သွားကြ": 2827,
      "သွားတဲ့": 2828,
      "ကာမ": 2829,
      "ကာရ": 2830,
      "ဦးနှောက်": 2831,
      "အစရှိတဲ့": 2832,
      "အကြည်": 2833,
      "အားပေး": 2834,
      "ခွင့်": 2835,
      "ဝင်ကြည့်": 2836,
      "လျှမ်း": 2837,
      "ပြောပြ": 2838,
      "ပြောလိုက်တာ": 2839,
      "ဒီနေ့": 2840,
      "တက်တက်": 2841,
      "ပင်ပန်း": 2842,
      "လည်လည်": 2843,
      "စိစိ": 2844,
      "စိတ္တ": 2845,
      "တံခွန်": 2846,
      "တံတား": 2847,
      "အမွေး": 2848,
      "ဗျည်း": 2849,
      "နည်းနည်း": 2850,
      "နည်းပညာ": 2851,
      "ပေါ်လာ": 2852,
      "လွှင့်": 2853,
      "အဆာ": 2854,
      "အထောက်": 2855,
      "မိုးကြိုး": 2856,
      "ရွှံ့": 2857,
      "cool": 2858,
      "နေ့မှာ": 2859,
      "ပုလဲ": 2860,
      "အခက်": 2861,
      "ကြိုးစား": 2862,
      "ဘယ်သူ့": 2863,
      "ors": 2864,
      "ညှဉ်း": 2865,
      "အမြီး": 2866,
      "သင်ပုန်း": 2867,
      "ပေသည်": 2868,
      "အလောင်း": 2869,
      "အလိမ္မာ": 2870,
      "မှတ်တမ်း": 2871,
      "စေသည်": 2872,
      "ဝါးဝါး": 2873,
      "ဆက်ဆံ": 2874,
      "ကြည့်ပါ": 2875,
      "တွေ့ရပါလိမ့်မယ်": 2876,
      "ကြောင်တောင်": 2877,
      "ဂျက်": 2878,
      "memor": 2879,
      "အချိန်မှာ": 2880,
      "ပေါ့ဗျာ": 2881,
      "ကုသ": 2882,
      "ပြည်နယ်": 2883,
      "ပြည်သူ့": 2884,
      "တစ်ခုလုံး": 2885,
      "တစ်ခုခု": 2886,
      "အဖန်": 2887,
      "တုံးလုံး": 2888,
      "ဘက်မှာ": 2889,
      "ပိုဒ်": 2890,
      "ဒေဝ": 2891,
      "ကလိ": 2892,
      "စိုးဝင်း": 2893,
      "ပိဋ": 2894,
      "အဲ့တာ": 2895,
      "အဲ့မှာ": 2896,
      "သူမနှင့်": 2897,
      "ဒ္ဓိ": 2898,
      "ect": 2899,
      "ecur": 2900,
      "ecking": 2901,
      "ရာဇဝင်": 2902,
      "နေတာလား": 2903,
      "အဲဒီတော့": 2904,
      "မြက်ခင်း": 2905,
      "ခက်ခဲ": 2906,
      "ဗြုန်း": 2907,
      "နိုင်ငံတော်": 2908,
      "အလှူ": 2909,
      "မန်နေဂျာ": 2910,
      "မော်ကွန်း": 2911,
      "ပလွေ": 2912,
      "အမှောင်": 2913,
      "stall": 2914,
      "programmer": 2915,
      "အရှုံး": 2916,
      "အမျိုးသား": 2917,
      "checking": 2918,
      "ower": 2919,
      "ကျွမ်းကျင်": 2920,
      "ပ္ပာယ်": 2921,
      "အလိုအလျှောက်": 2922,
      "ပါတ်သတ်": 2923,
      "မြန်မာငွေ": 2924,
      "အခြေအနေ": 2925,
      "ငှား": 2926,
      "olu": 2927,
      "ဆပ်ပြာ": 2928,
      "နားလည်တဲ့": 2929,
      "၁၀၇": 2930,
      "အကြမ်းဖျဉ်း": 2931,
      "runtime": 2932,
      "ဂီတ": 2933,
      "ဒိဋ္ဌ": 2934,
      "aries": 2935,
      "ariable": 2936,
      "ဖယောင်းတိုင်": 2937,
      "iscool": 2938,
      "achine": 2939,
      "viron": 2940,
      "မနေ့က": 2941,
      "ဗျူဟာ": 2942,
      "တူညီမျှ": 2943,
      "box": 2944,
      "2025": 2945,
      "IELTS": 2946,
      "Logiscool": 2947,
      "Windows": 2948,
      "memory": 2949,
      "ecurity": 2950,
      "vironment": 2951,
      "In": 2952,
      "Le": 2953,
      "My": 2954,
      "va": 2955,
      "ကလာ": 2956,
      "ကပေါက်": 2957,
      "ကလား": 2958,
      "ကနား": 2959,
      "ကယား": 2960,
      "ကဗျာ": 2961,
      "ကပ္ပ": 2962,
      "ဂု": 2963,
      "ဂန္": 2964,
      "ဂမုန်း": 2965,
      "ငု": 2966,
      "ငန်": 2967,
      "စန": 2968,
      "စဲ": 2969,
      "စသည်": 2970,
      "စန္ဒ": 2971,
      "ဆော": 2972,
      "ဆောင့်": 2973,
      "ဇန်": 2974,
      "ညား": 2975,
      "ဋီ": 2976,
      "ဏှ": 2977,
      "တပ": 2978,
      "တွား": 2979,
      "တမာ": 2980,
      "တခု": 2981,
      "တလော": 2982,
      "ဒင်္ဂ": 2983,
      "ဓု": 2984,
      "နန့်": 2985,
      "နက္ခ": 2986,
      "ပမ်း": 2987,
      "ပွေး": 2988,
      "ပနီ": 2989,
      "ပရိတ်": 2990,
      "ဖပ်": 2991,
      "ဗရ": 2992,
      "ဗိ": 2993,
      "ဗွ": 2994,
      "ဘောင်း": 2995,
      "မသား": 2996,
      "မထား": 2997,
      "မသွား": 2998,
      "မကြား": 2999,
      "မမြင်": 3000,
      "မယုံ": 3001,
      "ယဉ်း": 3002,
      "ယဇ်": 3003,
      "ရွေ": 3004,
      "ရိမ်": 3005,
      "ရသေး": 3006,
      "လစာ": 3007,
      "ဝက": 3008,
      "ဝံ့": 3009,
      "သယ": 3010,
      "သကာ": 3011,
      "သွမ်း": 3012,
      "သရဲ": 3013,
      "သလောက်": 3014,
      "ဟောင်": 3015,
      "ဟိုင်း": 3016,
      "အပါ": 3017,
      "အမှာ": 3018,
      "အလာ": 3019,
      "အမာ": 3020,
      "အအေး": 3021,
      "အစိတ်": 3022,
      "အလဲ": 3023,
      "အပန်း": 3024,
      "အဝါ": 3025,
      "အညာ": 3026,
      "အဝတ်": 3027,
      "အယောင်": 3028,
      "အလှည့်": 3029,
      "ိး": 3030,
      "ိယာ": 3031,
      "ွပ်": 3032,
      "ကြတဲ့": 3033,
      "ကြန့်": 3034,
      "ကြွင်း": 3035,
      "ကြိမ်း": 3036,
      "ကြပါစေ": 3037,
      "ပြိုး": 3038,
      "ပြွမ်း": 3039,
      "ချိန်း": 3040,
      "ချဉ်း": 3041,
      "ကျော့": 3042,
      "မှိုင်": 3043,
      "ပါဒ": 3044,
      "ပါဝင်": 3045,
      "မြန်း": 3046,
      "မြုပ်": 3047,
      "မြော်": 3048,
      "မြည်း": 3049,
      "ရှယ်": 3050,
      "ဖြာ": 3051,
      "ဖြို": 3052,
      "နေပူ": 3053,
      "နေထိုင်": 3054,
      "နေတုန်း": 3055,
      "ခြာ": 3056,
      "ခြယ်": 3057,
      "တစ်ပြန်": 3058,
      "တစ်ချက်": 3059,
      "တစ်ပတ်": 3060,
      "တစ်ကောင်": 3061,
      "တစ်စုံ": 3062,
      "တစ်ဆင့်": 3063,
      "တစ်နေကုန်": 3064,
      "လှုံ": 3065,
      "လှန့်": 3066,
      "ပျပ်": 3067,
      "ကြီးပြင်း": 3068,
      "ရေနံ": 3069,
      "ရေနွေး": 3070,
      "အတု": 3071,
      "ပြီးတော့": 3072,
      "ပြီးပြီ": 3073,
      "လူတွေက": 3074,
      "လေးများ": 3075,
      "ခံရ": 3076,
      "မိသား": 3077,
      "မိစ္ဆာ": 3078,
      "ရင်ကွဲ": 3079,
      "ရှိမ်း": 3080,
      "လေကြောင်း": 3081,
      "ပေါက်ပေါက်": 3082,
      "ပေါက်ဖွား": 3083,
      "ကားဆရာ": 3084,
      "စိတ်ကူး": 3085,
      "လဲလဲ": 3086,
      "ပန်းကန်": 3087,
      "သံပတ်": 3088,
      "ဦးထုပ်": 3089,
      "ဘာဖြစ်လို့": 3090,
      "အစစ်": 3091,
      "အစမ်း": 3092,
      "နားပင်း": 3093,
      "အချိုး": 3094,
      "အချဉ်": 3095,
      "ခွပ်": 3096,
      "တိုက်ခိုက်": 3097,
      "ပြန်လည်": 3098,
      "နောက်ပြီး": 3099,
      "တ္ထ": 3100,
      "ပြောတဲ့": 3101,
      "မှုတွေ": 3102,
      "န္တာ": 3103,
      "ရည်ဝ": 3104,
      "ချက်တွေ": 3105,
      "တရစပ်": 3106,
      "သမိုင်း": 3107,
      "ဒါန": 3108,
      "ခဲ့ရ": 3109,
      "ခဲ့သော": 3110,
      "အမော": 3111,
      "ခေါင်းလောင်း": 3112,
      "အဆင်း": 3113,
      "အဆစ်": 3114,
      "အဆိုး": 3115,
      "အဆိပ်": 3116,
      "ဖွင့်": 3117,
      "သီးစား": 3118,
      "ငါးမန်း": 3119,
      "ငွေက": 3120,
      "ပုဂ္ဂ": 3121,
      "ပုဏ္ဏ": 3122,
      "မြေပုံ": 3123,
      "နှစ်သက်": 3124,
      "နှစ်သစ်": 3125,
      "အခိုး": 3126,
      "သောကြာ": 3127,
      "အမြစ်": 3128,
      "အမြောက်": 3129,
      "ပေါင်းများစွာ": 3130,
      "သင်ရိုး": 3131,
      "သင်ခန်း": 3132,
      "ပူဇော်": 3133,
      "ဆုံးဖြတ်": 3134,
      "အလင်္ကာ": 3135,
      "ကျွန်မ": 3136,
      "မျှော့": 3137,
      "မုခ": 3138,
      "မှန်ကန်": 3139,
      "သေးပါဘူး": 3140,
      "ဆန်ခတ်": 3141,
      "သုံးပါး": 3142,
      "လောဘ": 3143,
      "ဝန်ဆောင်": 3144,
      "ဝတ်ဆံ": 3145,
      "ပစ်မှတ်": 3146,
      "ဝမ်းနည်း": 3147,
      "တိုင်းမှာ": 3148,
      "သို့ပေ": 3149,
      "မဟုတ်လား": 3150,
      "အဖေ": 3151,
      "ချိန်ခွင်": 3152,
      "ill": 3153,
      "ပညာရှင်": 3154,
      "ခွဲခြား": 3155,
      "ရောင်ခြည်": 3156,
      "စံချိန်": 3157,
      "anmar": 3158,
      "မြှုံး": 3159,
      "ကလောင်": 3160,
      "ကလိမ်": 3161,
      "သူ့ရဲ့": 3162,
      "ထိခိုက်": 3163,
      "နန်းတော်": 3164,
      "လုံလောက်": 3165,
      "မေးခွန်း": 3166,
      "စိုးရိမ်": 3167,
      "ဆွေမျိုး": 3168,
      "ခွင့်ပြု": 3169,
      "သဘောပေါက်": 3170,
      "မရွေး": 3171,
      "သူမကို": 3172,
      "အရေးပါ": 3173,
      "သုဉ်း": 3174,
      "လေ့ကျင့်": 3175,
      "ကော်မ": 3176,
      "သည်းခြေ": 3177,
      "အဝှ": 3178,
      "အလှမ်း": 3179,
      "သဲသဲ": 3180,
      "မန်ကျည်း": 3181,
      "ကိရိယာ": 3182,
      "အမျိုးမျိုး": 3183,
      "ရိုသေ": 3184,
      "ပျားရည်": 3185,
      "ဂေါက်": 3186,
      "သတိထား": 3187,
      "သတိပြု": 3188,
      "ယုံကြည်": 3189,
      "ယုတ္တိ": 3190,
      "၂၀၀": 3191,
      "ကိုယ့်ကို": 3192,
      "အံ့ဩ": 3193,
      "လှုပ်ရှား": 3194,
      "နှလုံးသား": 3195,
      "ဒါပေမဲ့": 3196,
      "စော်နံ": 3197,
      "ဝှေး": 3198,
      "ဝှေ့": 3199,
      "သူငယ်ချင်း": 3200,
      "အငြင်း": 3201,
      "အချင်းချင်း": 3202,
      "စီးပွားရေး": 3203,
      "တကယ့်": 3204,
      "ဦးစီးချုပ်": 3205,
      "အလွယ်တကူ": 3206,
      "ဆယ့်နှစ်": 3207,
      "အထွေထွေ": 3208,
      "နဝါရီ": 3209,
      "တော်လှန်ရေး": 3210,
      "Myanmar": 3211,
      "ဇန်နဝါရီ": 3212,
      "++": 3213,
      "18": 3214,
      "55": 3215,
      "500": 3216,
      "BW": 3217,
      "Bra": 3218,
      "CTS": 3219,
      "CIO": 3220,
      "En": 3221,
      "II": 3222,
      "Ja": 3223,
      "Managed": 3224,
      "On": 3225,
      "Pro": 3226,
      "Sk": 3227,
      "Su": 3228,
      "Un": 3229,
      "Up": 3230,
      "VM": 3231,
      "VS": 3232,
      "Volu": 3233,
      "Variable": 3234,
      "War": 3235,
      "Wall": 3236,
      "as": 3237,
      "ame": 3238,
      "bj": 3239,
      "bl": 3240,
      "bu": 3241,
      "cm": 3242,
      "class": 3243,
      "fa": 3244,
      "ff": 3245,
      "fin": 3246,
      "hand": 3247,
      "ime": 3248,
      "low": 3249,
      "ma": 3250,
      "machine": 3251,
      "pre": 3252,
      "ter": 3253,
      "ul": 3254,
      "up": 3255,
      "ull": 3256,
      "val": 3257,
      "yware": 3258,
      "ကထ": 3259,
      "ကိတ်": 3260,
      "ကလူ": 3261,
      "ကတ္တ": 3262,
      "ကမြင်း": 3263,
      "ကဏန်း": 3264,
      "ခရာ": 3265,
      "ခွင်း": 3266,
      "ခမည်း": 3267,
      "ဂန်": 3268,
      "ဂုန်": 3269,
      "ဂတိ": 3270,
      "ဂွမ်း": 3271,
      "ငမ်း": 3272,
      "ငိုက်": 3273,
      "ငုံး": 3274,
      "ငရုတ်": 3275,
      "ဇီး": 3276,
      "ဇဉ်": 3277,
      "ဇွန်း": 3278,
      "ဇမ္": 3279,
      "ဈာန်": 3280,
      "ညု": 3281,
      "ဏု": 3282,
      "တကြီး": 3283,
      "တမင်": 3284,
      "တက္က": 3285,
      "ထော့": 3286,
      "ထွတ်": 3287,
      "ထဘီ": 3288,
      "ဒိန်": 3289,
      "ဓါ": 3290,
      "နန": 3291,
      "နျ": 3292,
      "နောင်း": 3293,
      "နဖား": 3294,
      "ပံ": 3295,
      "ပဝါ": 3296,
      "ပရို": 3297,
      "ပဏ္ဍ": 3298,
      "ပသျှ": 3299,
      "ပကတိ": 3300,
      "ဖူ": 3301,
      "ဖည်": 3302,
      "ဖီး": 3303,
      "ဖွေ": 3304,
      "ဖလံ": 3305,
      "ဗူ": 3306,
      "ဗန်း": 3307,
      "ဗွတ်": 3308,
      "မစ်": 3309,
      "မွေ": 3310,
      "မော့": 3311,
      "မစား": 3312,
      "မလာ": 3313,
      "မနိုင်": 3314,
      "မကြံ": 3315,
      "မစဉ်းစား": 3316,
      "မယုတ်မာ": 3317,
      "မဇ္ဈ": 3318,
      "ရရ": 3319,
      "ရပဲ": 3320,
      "ရနိုင်": 3321,
      "ရံ့": 3322,
      "ရရော": 3323,
      "ရတတ်": 3324,
      "ရမဲ့": 3325,
      "ရမယ့်": 3326,
      "ရမလား": 3327,
      "လိန်း": 3328,
      "လိမ်း": 3329,
      "လဒ်": 3330,
      "ဝဏ္ဏ": 3331,
      "သဲ့": 3332,
      "သုန်း": 3333,
      "သိန်": 3334,
      "သရော": 3335,
      "သနပ်": 3336,
      "သပွတ်": 3337,
      "သဖြင့်": 3338,
      "ဟည်း": 3339,
      "ဟုန်": 3340,
      "အလက်": 3341,
      "အညှ": 3342,
      "အပျက်": 3343,
      "အုံ့": 3344,
      "အဘွား": 3345,
      "အဖျင်း": 3346,
      "ဥတု": 3347,
      "ဧရာ": 3348,
      "၁၅": 3349,
      "၅၀": 3350,
      "ကြူး": 3351,
      "ကြဘူး": 3352,
      "ကြစို့": 3353,
      "ကြိယာ": 3354,
      "ပြူ": 3355,
      "ပြွန်": 3356,
      "ချိုင်း": 3357,
      "ချွံ": 3358,
      "ကျမ": 3359,
      "ကျတ်": 3360,
      "ကျုံး": 3361,
      "ကျုံ့": 3362,
      "ပါသလား": 3363,
      "မြို": 3364,
      "မြော": 3365,
      "မြေး": 3366,
      "မြိုက်": 3367,
      "မြွက်": 3368,
      "မြွှာ": 3369,
      "ရှိုး": 3370,
      "ကိုပါ": 3371,
      "ကိုလည်း": 3372,
      "ိုင်ကော်": 3373,
      "ဖြော": 3374,
      "နှိုး": 3375,
      "နှံ့": 3376,
      "မျို": 3377,
      "နေတော့": 3378,
      "နေရင်": 3379,
      "နေသည့်": 3380,
      "တာက": 3381,
      "တာလဲ": 3382,
      "ခြူး": 3383,
      "ခြိမ်း": 3384,
      "တွေလည်း": 3385,
      "ရာရာ": 3386,
      "လက်မ": 3387,
      "လက်ရှိ": 3388,
      "လက်ဆွဲ": 3389,
      "တစ်စိတ်": 3390,
      "တစ်သက်": 3391,
      "တစ်ပွဲ": 3392,
      "တစ်မျိုး": 3393,
      "လှပ": 3394,
      "လှစ်": 3395,
      "စာလုံး": 3396,
      "စာတမ်း": 3397,
      "စာဖတ်": 3398,
      "ပျမ်း": 3399,
      "ကြီးမား": 3400,
      "ရေခံ": 3401,
      "သူပုန်": 3402,
      "လုပ်ဆောင်": 3403,
      "စားတော်": 3404,
      "စားပေါက်": 3405,
      "လွိုင်ကော်": 3406,
      "တော့တယ်": 3407,
      "မှာလည်း": 3408,
      "အတိုင်": 3409,
      "အတန့်": 3410,
      "ဆိုသော": 3411,
      "လျောက်": 3412,
      "ပေးတဲ့": 3413,
      "ပေးရပါလိမ့်မယ်": 3414,
      "ပြီးမှ": 3415,
      "ပြီးရင်တော့": 3416,
      "လာသည်": 3417,
      "လာပြော": 3418,
      "လာရော": 3419,
      "လူနာ": 3420,
      "ခံ့": 3421,
      "နဲ့အတူ": 3422,
      "မိန်": 3423,
      "မိတဲ့": 3424,
      "ရင်ခွင်": 3425,
      "ရှိန်း": 3426,
      "ရှိတာ": 3427,
      "ရှိခိုး": 3428,
      "လေတော့": 3429,
      "လေသံ": 3430,
      "အသွား": 3431,
      "ရေးရေး": 3432,
      "ရေးမှူး": 3433,
      "ရွံ့": 3434,
      "သာမ": 3435,
      "လိုလို": 3436,
      "လိုဏ်": 3437,
      "မီးရထား": 3438,
      "တင်သုံး": 3439,
      "တို့အား": 3440,
      "ထားပြီး": 3441,
      "ခင်ချို": 3442,
      "နိုင်တာ": 3443,
      "ကားသမား": 3444,
      "သွားရင်": 3445,
      "သိမ့်": 3446,
      "စိတ်မ": 3447,
      "စိတ်ဓာတ်": 3448,
      "အရိုင်း": 3449,
      "ပန်းချီ": 3450,
      "ဦးရေ": 3451,
      "ဘာကြောင့်": 3452,
      "အစေး": 3453,
      "အစပ်": 3454,
      "အစုတ်": 3455,
      "အစွမ်း": 3456,
      "လို့လား": 3457,
      "လို့လဲ": 3458,
      "အချာ": 3459,
      "အချောင်": 3460,
      "အချို့": 3461,
      "အားနာ": 3462,
      "အားသာ": 3463,
      "ဖျစ်": 3464,
      "လျှို့": 3465,
      "ပြန်ရော": 3466,
      "နောက်ကျ": 3467,
      "နောက်ဖေး": 3468,
      "ပြောတာ": 3469,
      "မှုကို": 3470,
      "ဒီမှာ": 3471,
      "ဒီယို": 3472,
      "ပုံသေ": 3473,
      "ပုံနှိပ်": 3474,
      "ပင်တိုင်": 3475,
      "ပင်စင်": 3476,
      "လည်ပင်း": 3477,
      "ချက်ချင်း": 3478,
      "ချက်ကတော့": 3479,
      "တရော်": 3480,
      "ဝါသ": 3481,
      "ဝါဆို": 3482,
      "ဒါကို": 3483,
      "ဒါဆိုရင်တော့": 3484,
      "ဇာတ": 3485,
      "အာသာ": 3486,
      "အာကာသ": 3487,
      "ခဲ့ကြောင်း": 3488,
      "တံ့": 3489,
      "ပေါ်လာတဲ့": 3490,
      "အဆီး": 3491,
      "အဆောက်": 3492,
      "အဆောင်": 3493,
      "အထဲ": 3494,
      "လည်းကောင်း": 3495,
      "အကယ်": 3496,
      "အကောင်": 3497,
      "မိုးကောင်း": 3498,
      "ရွှေ့": 3499,
      "collection": 3500,
      "နေ့ချင်း": 3501,
      "ယူသုံး": 3502,
      "ချင်တဲ့": 3503,
      "နှစ်မြောက်": 3504,
      "ညာဉ်": 3505,
      "ပတ်လည်": 3506,
      "ပတ်ကြိုး": 3507,
      "အခန်း": 3508,
      "စပ်စပ်": 3509,
      "ညှစ်": 3510,
      "အမြိတ်": 3511,
      "ပေါင်းစပ်": 3512,
      "ပေါင်းသင်း": 3513,
      "သင်ပေး": 3514,
      "ပေမယ့်": 3515,
      "ရဲရဲ": 3516,
      "ဘောဂ": 3517,
      "သစ်ပင်": 3518,
      "ရက်နေ့": 3519,
      "အုပ်ချုပ်": 3520,
      "အုပ်စု": 3521,
      "စကားစ": 3522,
      "ညီအစ်": 3523,
      "မှတ်မှတ်": 3524,
      "မျှား": 3525,
      "ငြိုး": 3526,
      "မုဆိုး": 3527,
      "အိုးကင်း": 3528,
      "စည်းကမ်း": 3529,
      "ထောင်ချောက်": 3530,
      "ting": 3531,
      "ties": 3532,
      "တည်တည်": 3533,
      "တန်ခိုး": 3534,
      "ဆီက": 3535,
      "ကြည့်လို့": 3536,
      "ဂျုံ": 3537,
      "ဆန်ခါ": 3538,
      "အကျပ်": 3539,
      "medi": 3540,
      "စုံစမ်း": 3541,
      "ဆံပင်": 3542,
      "နံနက်": 3543,
      "မွေးမြူ": 3544,
      "မွေးကတည်း": 3545,
      "ရိက္ခာ": 3546,
      "ရန်ကုန်": 3547,
      "သင်္ကာ": 3548,
      "အလုပ်ကို": 3549,
      "ဝမ်းတွင်း": 3550,
      "နတ်သမီး": 3551,
      "ကြက်သွန်": 3552,
      "သို့မဟုတ်": 3553,
      "ဇာတ်ဝင်": 3554,
      "ရုံပဲ": 3555,
      "အောက်ခြေ": 3556,
      "ကူးတို့": 3557,
      "ကူးယူ": 3558,
      "အဖေ့": 3559,
      "defin": 3560,
      "ကျောင်းချိန်": 3561,
      "ဝေဖန်": 3562,
      "ကြေးနန်း": 3563,
      "အကြောင်းကို": 3564,
      "ချာလည်": 3565,
      "ဆိုတာကတော့": 3566,
      "install": 3567,
      "မြှေး": 3568,
      "ကလတ်": 3569,
      "ကလစ်": 3570,
      "သွင်းပြီး": 3571,
      "ဘီယာ": 3572,
      "ကမ်းပါး": 3573,
      "compilation": 3574,
      "အကိုရေ": 3575,
      "သဘောကျ": 3576,
      "သဘောထား": 3577,
      "ပျော်ရွှင်": 3578,
      "reet": 3579,
      "အဲ့တာနဲ့": 3580,
      "မရဘူး": 3581,
      "ဒ္ဒ": 3582,
      "ဖောက်သည်": 3583,
      "မွှေ": 3584,
      "အပေါ်မှ": 3585,
      "အပေါ်မှာ": 3586,
      "အပေါ်ယံ": 3587,
      "ကံကောင်း": 3588,
      "ချစ်သည်": 3589,
      "လိမ့်မည်": 3590,
      "အခုပဲ": 3591,
      "ပြည့်စုံ": 3592,
      "သုခ": 3593,
      "စာအုပ်ရယ်": 3594,
      "အဲဒီမှာ": 3595,
      "မီတာ": 3596,
      "ရတာပဲ": 3597,
      "လောကီ": 3598,
      "ခရီးစဉ်": 3599,
      "သမ္ပ": 3600,
      "လွှတ်တော်": 3601,
      "ကွယ်ရာ": 3602,
      "ဓားပြ": 3603,
      "est": 3604,
      "ဖြေရှင်း": 3605,
      "ဗြူး": 3606,
      "unc": 3607,
      "ဖိအား": 3608,
      "သန်းခေါင်": 3609,
      "Code": 3610,
      "Comp": 3611,
      "Cour": 3612,
      "မော်တော်": 3613,
      "ပလုတ်": 3614,
      "အမှီ": 3615,
      "နီးပါး": 3616,
      "ရပါ့မယ်": 3617,
      "အသက်ရှူ": 3618,
      "ခိုင်းတာ": 3619,
      "ssem": 3620,
      "တိတ်ဆိတ်": 3621,
      "လုလင်": 3622,
      "အငှ": 3623,
      "အနှုန်း": 3624,
      "ဝန်းကျင်": 3625,
      "ကြိုက်တာ": 3626,
      "cep": 3627,
      "တကယ်တော့": 3628,
      "အောင်မြင်စွာ": 3629,
      "သျှောင်": 3630,
      "ication": 3631,
      "အပိုင်းမှာတော့": 3632,
      "မိမိတို့": 3633,
      "ကျေးဇူးတင်": 3634,
      "ကျေးဇူးပြု": 3635,
      "ကြုံတွေ့": 3636,
      "ရှူတင်": 3637,
      "ကြေညာ": 3638,
      "အတိုင်းပဲ": 3639,
      "စော်ကား": 3640,
      "သရုပ်ဆောင်": 3641,
      "အုံးတဲ့": 3642,
      "ဗုံးသီး": 3643,
      "အဓိပ္ပာယ်": 3644,
      "advance": 3645,
      "ဘုန်းကြီး": 3646,
      "environment": 3647,
      "အရမ်းကို": 3648,
      "ဂရုစိုက်": 3649,
      "မတူဘူး": 3650,
      "ရီးယား": 3651,
      "ဖျောက်ဆိပ်": 3652,
      "exe": 3653,
      "riors": 3654,
      "libraries": 3655,
      "တာဝန်ရှိ": 3656,
      "အနည်းငယ်": 3657,
      "တပ်ဖွဲ့ဝင်": 3658,
      "ညွှန်ကြား": 3659,
      "သမာဓိ": 3660,
      "ထေရ်": 3661,
      "ဒွိ": 3662,
      "နွှဲ": 3663,
      "အလျောက်": 3664,
      "ကျိန်စာ": 3665,
      "အတ္တ": 3666,
      "ရပ်တည်နေတဲ့": 3667,
      "ဒြပ်": 3668,
      "အကောင်းဆုံး": 3669,
      "perties": 3670,
      "လိုက်ရမှ": 3671,
      "design": 3672,
      "တျာ": 3673,
      "မတိုင်ခင်": 3674,
      "ကာကွယ်ရေး": 3675,
      "န္တရာယ်": 3676,
      "Spyware": 3677,
      "Street": 3678,
      "သဒ္ဒါ": 3679,
      "ပြောလိုက်တာနဲ့": 3680,
      "ပါတ်သတ်ပြီး": 3681,
      "Level": 3682,
      "ကယားပြည်နယ်": 3683,
      "တပည့်": 3684,
      "ဒင်္ဂါး": 3685,
      "ဘောင်းဘီ": 3686,
      "မိသားစု": 3687,
      "သင်ခန်းစာ": 3688,
      "မုခ်": 3689,
      "BWM": 3690,
      "Brave": 3691,
      "Java": 3692,
      "Skill": 3693,
      "Volume": 3694,
      "Warriors": 3695,
      "bject": 3696,
      "bly": 3697,
      "cmd": 3698,
      "ဓါတ်": 3699,
      "ပသျှူး": 3700,
      "mediate": 3701,
      "defined": 3702,
      "Course": 3703,
      "ssembly": 3704,
      "Ac": 3705,
      "fi": 3706,
      "her": 3707,
      "mi": 3708,
      "no": 3709,
      "set": 3710,
      "ကရေ": 3711,
      "ကမာ": 3712,
      "ကပါး": 3713,
      "ကသီ": 3714,
      "ကရား": 3715,
      "ကရု": 3716,
      "ကရို": 3717,
      "ခိ": 3718,
      "ခန်": 3719,
      "ဂရ": 3720,
      "ဂဠ": 3721,
      "ဂန္ဓ": 3722,
      "ငိုး": 3723,
      "ငဲ့": 3724,
      "စစ": 3725,
      "စုန်": 3726,
      "စတွေ့": 3727,
      "စကြာ": 3728,
      "စွေ့": 3729,
      "စလွယ်": 3730,
      "စလုတ်": 3731,
      "ဇယ": 3732,
      "ဇေ": 3733,
      "ဇဝါ": 3734,
      "ဇလီ": 3735,
      "ညို့": 3736,
      "ညစာ": 3737,
      "ဌ်": 3738,
      "တပါး": 3739,
      "တခါ": 3740,
      "တဖြုတ်": 3741,
      "တတိယ": 3742,
      "တလဲလဲ": 3743,
      "ထေး": 3744,
      "ဒယ": 3745,
      "ဒန်": 3746,
      "ဒတ်": 3747,
      "ဒန်း": 3748,
      "ဒုတ်": 3749,
      "ဒွေး": 3750,
      "ဓန": 3751,
      "ဓနိ": 3752,
      "ဓမ္မာ": 3753,
      "နို": 3754,
      "နမ်း": 3755,
      "နုပ်": 3756,
      "နောင့်": 3757,
      "နရား": 3758,
      "နွံ": 3759,
      "နဂို": 3760,
      "ပည": 3761,
      "ပည်း": 3762,
      "ပရာ": 3763,
      "ပလာ": 3764,
      "ပလူ": 3765,
      "ပွန်": 3766,
      "ပကာ": 3767,
      "ပတိ": 3768,
      "ပတ္တ": 3769,
      "ဖုံ": 3770,
      "ဖန့်": 3771,
      "ဖဝါး": 3772,
      "ဖနောင့်": 3773,
      "ဗန်": 3774,
      "ဗုန်း": 3775,
      "ဗမာ": 3776,
      "ဗဟု": 3777,
      "ဘန်": 3778,
      "မန": 3779,
      "မွ": 3780,
      "မုံ": 3781,
      "မပါ": 3782,
      "မတက်": 3783,
      "မရောက်": 3784,
      "မတတ်": 3785,
      "မကွဲ": 3786,
      "မသောက်": 3787,
      "မကန်း": 3788,
      "မပြတ်": 3789,
      "မလွှတ်": 3790,
      "ယန်း": 3791,
      "ယနေ့": 3792,
      "ရဝ": 3793,
      "ရန့်": 3794,
      "ရလို့": 3795,
      "ရနံ့": 3796,
      "ရတနာ": 3797,
      "လခ": 3798,
      "လီး": 3799,
      "လသာ": 3800,
      "လဟာ": 3801,
      "လုံ့": 3802,
      "လပြည့်": 3803,
      "ဝုန်း": 3804,
      "သပ": 3805,
      "သုပ်": 3806,
      "သတဲ့": 3807,
      "သနား": 3808,
      "သက္": 3809,
      "သညာ": 3810,
      "သငယ်": 3811,
      "သမျှ": 3812,
      "သလင်း": 3813,
      "သဏ္": 3814,
      "သဒ္ဓ": 3815,
      "ဟ္": 3816,
      "ဟား": 3817,
      "ဟယ်": 3818,
      "ဟုံ": 3819,
      "ဟိုး": 3820,
      "ဟော့": 3821,
      "ဟန့်": 3822,
      "အီး": 3823,
      "အော့": 3824,
      "အိုင်း": 3825,
      "အသူ": 3826,
      "အမယ်": 3827,
      "အဦး": 3828,
      "အန္": 3829,
      "အငယ်": 3830,
      "အဖက်": 3831,
      "အပိုး": 3832,
      "အပိုင်": 3833,
      "အပေါင်": 3834,
      "အဝိုင်း": 3835,
      "အအိပ်": 3836,
      "အလေ့": 3837,
      "အဖျက်": 3838,
      "အလျား": 3839,
      "အဖြည့်": 3840,
      "အငြိမ်း": 3841,
      "အငွေ့": 3842,
      "အပင်း": 3843,
      "အလျင်": 3844,
      "အဂ္ဂ": 3845,
      "အညှော်": 3846,
      "အညံ့": 3847,
      "အပျင်း": 3848,
      "အန္တရာယ်": 3849,
      "ဥယျာ": 3850,
      "ဩဘာ": 3851,
      "ိတ": 3852,
      "ိယ": 3853,
      "‌တွေ": 3854,
      "ကြင်း": 3855,
      "ကြတ်": 3856,
      "ကြို့": 3857,
      "ကြဉ်": 3858,
      "ပြိ": 3859,
      "ပြိုက်": 3860,
      "ပြည်း": 3861,
      "ပြော့": 3862,
      "ပြုန်း": 3863,
      "ပြိန်း": 3864,
      "ပြဒါး": 3865,
      "ချုံ": 3866,
      "ချည်း": 3867,
      "ကျိုင်း": 3868,
      "ကျဉ်": 3869,
      "ကျင့်": 3870,
      "မှေး": 3871,
      "မှီး": 3872,
      "မှဲ့": 3873,
      "ပါဌ်": 3874,
      "မြိန်": 3875,
      "ရှဲ": 3876,
      "ရှော": 3877,
      "ဖြင်": 3878,
      "ဖြန်": 3879,
      "နှမ": 3880,
      "နှက်": 3881,
      "နေနေ": 3882,
      "နေမယ်": 3883,
      "နေအိမ်": 3884,
      "ခြုတ်": 3885,
      "တွေဟာ": 3886,
      "ရာမဲ့": 3887,
      "လက်သီး": 3888,
      "လက်ကြား": 3889,
      "လက်ကောက်": 3890,
      "လက်ခတ်": 3891,
      "လက်ဖျား": 3892,
      "လက်ရုံး": 3893,
      "တစ်လမ်း": 3894,
      "တစ်အုပ်": 3895,
      "တစ်ရံ": 3896,
      "လှူ": 3897,
      "လှံ": 3898,
      "လှသည်": 3899,
      "လှိမ့်": 3900,
      "လှည့်": 3901,
      "စာသင်": 3902,
      "စာချုပ်": 3903,
      "စာကြည့်": 3904,
      "ကြီးတယ်": 3905,
      "ရေစာ": 3906,
      "ရေစစ်": 3907,
      "ရေစီး": 3908,
      "ရေချိန်": 3909,
      "ရေသောက်": 3910,
      "ရေမှုတ်": 3911,
      "လုပ်ရပ်": 3912,
      "စားစား": 3913,
      "ဖြစ်တဲ့": 3914,
      "အတော": 3915,
      "အတည်": 3916,
      "အတုံး": 3917,
      "ဆိုပါတယ်": 3918,
      "လျူ": 3919,
      "လျစ်": 3920,
      "ပေးဖို့": 3921,
      "လူတိုင်း": 3922,
      "လေးလုံး": 3923,
      "ခံဝန်": 3924,
      "ရင်တောင်": 3925,
      "ရင်ဂျီ": 3926,
      "လိုက်တော့": 3927,
      "လိုက်နာ": 3928,
      "ရှိနေတယ်": 3929,
      "လေသာ": 3930,
      "အသတ်": 3931,
      "အသွယ်": 3932,
      "ရေးဆွဲ": 3933,
      "တော်ရ": 3934,
      "တော်ပါ": 3935,
      "တော်တော်": 3936,
      "ရွရွ": 3937,
      "သာမန်": 3938,
      "လုံးကြီး": 3939,
      "လုံးကျွတ်": 3940,
      "မာလ": 3941,
      "မီးခိုး": 3942,
      "မီးခြစ်": 3943,
      "တို့ဖြင့်": 3944,
      "တို့သည်လည်း": 3945,
      "မျက်ဆန်": 3946,
      "ခင်ထွေး": 3947,
      "သွားမယ်": 3948,
      "သွားပါပြီ": 3949,
      "သိရှိ": 3950,
      "စိတ်ဆိုး": 3951,
      "စိတ်ပျက်": 3952,
      "စိတ်ကြိုက်": 3953,
      "စိတ်ထဲမှာ": 3954,
      "စိတ်ဝင်စား": 3955,
      "အရုပ်": 3956,
      "အရောင်း": 3957,
      "အရုဏ်": 3958,
      "ပန်းထိမ်": 3959,
      "ကာရန်": 3960,
      "သံကြိုး": 3961,
      "သံချပ်": 3962,
      "သံဃာ": 3963,
      "ဦးမယ်": 3964,
      "ဦးဆုံး": 3965,
      "ဦးဆောင်": 3966,
      "ဦးတည်": 3967,
      "ဘာလဲ": 3968,
      "ကိုယ်ကို": 3969,
      "အစော": 3970,
      "နားပန်း": 3971,
      "နားပူ": 3972,
      "နားထောင်": 3973,
      "င်္က": 3974,
      "င်္ဂါ": 3975,
      "အကြင်": 3976,
      "အချစ်": 3977,
      "အားရ": 3978,
      "အားကစား": 3979,
      "ဝင်ရောက်": 3980,
      "ဖျတ်": 3981,
      "ဖျန်း": 3982,
      "လျှိး": 3983,
      "နောက်က": 3984,
      "နောက်ခံ": 3985,
      "နောက်ပြန်": 3986,
      "နောက်ပိတ်": 3987,
      "တ္တူ": 3988,
      "တ္ထိ": 3989,
      "ဆေးထိုး": 3990,
      "ပြောတော့": 3991,
      "ပြောဆို": 3992,
      "ပြောလိုက်တယ်": 3993,
      "ခြေချင်း": 3994,
      "ခြေကုပ်": 3995,
      "ဒီတော့": 3996,
      "ဒီလောက်": 3997,
      "ဒီကောင်": 3998,
      "န္န": 3999,
      "များများ": 4000,
      "များတွင်": 4001,
      "မင်းတို့": 4002,
      "သေနာ": 4003,
      "သေဆုံး": 4004,
      "တက်ရောက်": 4005,
      "ပင်ထောင်": 4006,
      "ကောင်းကင်": 4007,
      "ကောင်းမွန်": 4008,
      "ချက်ပြုတ်": 4009,
      "ဝါစာ": 4010,
      "သမု": 4011,
      "ဒါန်": 4012,
      "ပွဲတော်": 4013,
      "အာစ": 4014,
      "အာခေါင်": 4015,
      "အိမ်ရာ": 4016,
      "အိမ်ကြီး": 4017,
      "အိမ်မှာ": 4018,
      "အိမ်တွင်း": 4019,
      "စိန်း": 4020,
      "ခဲ့ပါတယ်": 4021,
      "တံမြက်": 4022,
      "အမေး": 4023,
      "အမိုက်": 4024,
      "အမူး": 4025,
      "ဗျစ်": 4026,
      "နည်းနာ": 4027,
      "နည်းတူ": 4028,
      "ပေါ်ပေါက်": 4029,
      "အဆန်း": 4030,
      "အဆွေ": 4031,
      "သီးသန့်": 4032,
      "အကင်း": 4033,
      "အကွင်း": 4034,
      "ငါးရံ့": 4035,
      "လမ်းလျှောက်": 4036,
      "ပုတီး": 4037,
      "ပုစဉ်း": 4038,
      "ရိုးရာ": 4039,
      "ချင်တော့": 4040,
      "ချင်စိတ်": 4041,
      "နှစ်ထပ်": 4042,
      "ပတ်သက်": 4043,
      "အခိုက်": 4044,
      "အခိုင်": 4045,
      "ဘယ်တော့မှ": 4046,
      "ပြီလေ": 4047,
      "တူတူ": 4048,
      "ကုန်ထုတ်": 4049,
      "သောက": 4050,
      "သောသော": 4051,
      "ညှို့": 4052,
      "တန်းစား": 4053,
      "အမြင့်": 4054,
      "နှာမောင်း": 4055,
      "ရဲဘော်": 4056,
      "ဆုံးရှုံး": 4057,
      "လောက်လေး": 4058,
      "လောက်အောင်": 4059,
      "အလော": 4060,
      "အလစ်": 4061,
      "အလွဲ": 4062,
      "အလိမ်": 4063,
      "အလိပ်": 4064,
      "အပြက်": 4065,
      "အပြတ်": 4066,
      "မှတ်ချက်": 4067,
      "ကျွန်တော": 4068,
      "ဖက်လိပ်": 4069,
      "ရုပ်လုံး": 4070,
      "ဟုတ်တယ်": 4071,
      "ဟုတ်ကဲ့": 4072,
      "မျှစ်": 4073,
      "ငြီး": 4074,
      "ငြမ်း": 4075,
      "ငြောင့်": 4076,
      "ဆောင်ရွက်": 4077,
      "အိုးစား": 4078,
      "တည်ရှိ": 4079,
      "တည်ဆောက်": 4080,
      "တင်းတင်း": 4081,
      "တပ်စွဲ": 4082,
      "တပ်မတော်": 4083,
      "ရောက်တော့": 4084,
      "မှန်တယ်": 4085,
      "က္ခမ": 4086,
      "က္ခန္ဓာ": 4087,
      "ကြည့်မယ်": 4088,
      "ထွက်ပစ္စည်း": 4089,
      "မည်သူ": 4090,
      "သေးတဲ့": 4091,
      "သေးလား": 4092,
      "ဂျူ": 4093,
      "ဆင်ခြင်": 4094,
      "တိုးတိုး": 4095,
      "သုံးနှုန်း": 4096,
      "စီရင်": 4097,
      "အကျော်": 4098,
      "ခါးပန်း": 4099,
      "ခါးပိုက်": 4100,
      "လောလော": 4101,
      "ရိုက်တာ": 4102,
      "လယ်ယာ": 4103,
      "ကုက္": 4104,
      "သင်္ချာ": 4105,
      "သင်္ကေ": 4106,
      "ပျက်စီး": 4107,
      "ကူလီ": 4108,
      "ဝမ်းဘဲ": 4109,
      "တိုတို": 4110,
      "သို့ဖြစ်": 4111,
      "ခါစ": 4112,
      "ဓာတ်ဆီ": 4113,
      "မူလ": 4114,
      "ဈေးဝယ်": 4115,
      "ကူးလူး": 4116,
      "အဖမ်း": 4117,
      "အပ်နှံ": 4118,
      "ကျောင်းအုပ်": 4119,
      "ကျောင်းအပ်": 4120,
      "ထဲကို": 4121,
      "ထင်ရှား": 4122,
      "အနည်": 4123,
      "ရှေ့နေ": 4124,
      "ဝက်အူ": 4125,
      "သမားတွေ": 4126,
      "ဝိသေ": 4127,
      "ဝိဇ္": 4128,
      "ဖူးဘူး": 4129,
      "ဖြူစင်": 4130,
      "မြှင့်": 4131,
      "ကလော်": 4132,
      "နိစ္စ": 4133,
      "စိုးမိုး": 4134,
      "နှင်းဆီ": 4135,
      "နှင်းနှင်း": 4136,
      "အဲ့ဒီ": 4137,
      "မရန်း": 4138,
      "မြန်မြန်": 4139,
      "ထူးခြား": 4140,
      "အနေအထား": 4141,
      "ချစ်စရာ": 4142,
      "ချဉ်ပေါင်": 4143,
      "သုတ": 4144,
      "စရာတွေ": 4145,
      "ဓိဋ္ဌာန်": 4146,
      "အိပ်မက်": 4147,
      "ခရီးသည်": 4148,
      "တစ်ယောက်ယောက်": 4149,
      "ရှားစောင်း": 4150,
      "ဓားမ": 4151,
      "ရုံးသုံး": 4152,
      "ဂုဏ်ယူ": 4153,
      "ပစ္စ": 4154,
      "ပစ္စု": 4155,
      "ဗြောင်": 4156,
      "စောင့်": 4157,
      "အဝယ်": 4158,
      "ကျေနပ်": 4159,
      "နိုင်ငံသား": 4160,
      "နိုင်ငံရေး": 4161,
      "နိုင်ငံခြား": 4162,
      "ရိပ်သာ": 4163,
      "ရိပ်ရိပ်": 4164,
      "သူတို့က": 4165,
      "နွေးထွေး": 4166,
      "နွေးနွေး": 4167,
      "ဖမ်းဆီး": 4168,
      "ကန့်ချုပ်": 4169,
      "မသိဘူး": 4170,
      "သိုးသိုး": 4171,
      "ကြပ်ကြပ်": 4172,
      "ကွမ်းသီး": 4173,
      "ခြုံငုံ": 4174,
      "အတူတကွ": 4175,
      "အငေါ": 4176,
      "အန်တီ": 4177,
      "ကျက်သရေ": 4178,
      "တွေကလည်း": 4179,
      "ငြိမ်းချမ်း": 4180,
      "ပ္ပတ္တိ": 4181,
      "စက္ခု": 4182,
      "ကြော်ငြာ": 4183,
      "ယုဂ်": 4184,
      "ကုတ်ကုတ်": 4185,
      "အမှတ်တရ": 4186,
      "ယဉ်စွန်း": 4187,
      "အံ့အား": 4188,
      "ပျော့ပျော့": 4189,
      "ကီလို": 4190,
      "ဇော်ဂျီ": 4191,
      "ကြိုတင်": 4192,
      "ကျူးကျော်": 4193,
      "လျှပ်စစ်": 4194,
      "ငေါ့": 4195,
      "ကွန်ပျူ": 4196,
      "ပင့်ကူ": 4197,
      "သရုပ်ခွဲ": 4198,
      "မင်္ဂလ": 4199,
      "သရဏ": 4200,
      "သွယ်ရေး": 4201,
      "ညက်ညက်": 4202,
      "ပဋိပ": 4203,
      "မုတ်ဆိတ်": 4204,
      "မည်သည့်နည်း": 4205,
      "သက်သာခွင့်": 4206,
      "လုပ်နေလဲ": 4207,
      "အမျှင်": 4208,
      "အင်္ဂါဂြိုဟ်": 4209,
      "ပမာဏ": 4210,
      "တြိ": 4211,
      "ရည်းစား": 4212,
      "ပါရစေ": 4213,
      "ပါရမီ": 4214,
      "လက်ဖက်ရည်": 4215,
      "ဒိုဘီ": 4216,
      "လိုအပ်ချက်": 4217,
      "ဝေါဟာရ": 4218,
      "စွက်ဖက်": 4219,
      "ထောပတ်": 4220,
      "ဗောဓိ": 4221,
      "မဆုံးမ": 4222,
      "အမွှေး": 4223,
      "ဋ္ဌာန်း": 4224,
      "စိတ္တဇ": 4225,
      "ပိဋကတ်": 4226,
      "ဂန္ထ": 4227,
      "ဋီကာ": 4228,
      "နက္ခတ်": 4229,
      "ဗွီ": 4230,
      "ချဉ်းကပ်": 4231,
      "ကော်မရှင်": 4232,
      "ယုံကြည်မှု": 4233,
      "ဇမ္ဗူ": 4234,
      "နျူ": 4235,
      "မဇ္ဈိမ": 4236,
      "ကရေစီ": 4237,
      "ကရုဏာ": 4238,
      "ဂဠုန်": 4239,
      "တခါတလေ": 4240,
      "လုံ့လ": 4241,
      "သဏ္ဌာန်": 4242,
      "သဒ္ဓါ": 4243,
      "ဥယျာဉ်": 4244,
      "ကျွန်တော့်": 4245,
      "သင်္ကေတ": 4246,
      "ဝိဇ္ဇာ": 4247,
      "ကွန်ပျူတာ": 4248,
      "..": 4249,
      "28": 4250,
      "5000": 4251,
      "Ad": 4252,
      "CP": 4253,
      "Ca": 4254,
      "Cli": 4255,
      "De": 4256,
      "Er": 4257,
      "Fre": 4258,
      "File": 4259,
      "Full": 4260,
      "IT": 4261,
      "JIT": 4262,
      "Ks": 4263,
      "La": 4264,
      "Lin": 4265,
      "OO": 4266,
      "Py": 4267,
      "Pers": 4268,
      "Path": 4269,
      "Power": 4270,
      "Security": 4271,
      "Time": 4272,
      "Vi": 4273,
      "WS": 4274,
      "Yo": 4275,
      "assembly": 4276,
      "bage": 4277,
      "bes": 4278,
      "ck": 4279,
      "cro": 4280,
      "cture": 4281,
      "ding": 4282,
      "dit": 4283,
      "dware": 4284,
      "ew": 4285,
      "eat": 4286,
      "ent": 4287,
      "fro": 4288,
      "func": 4289,
      "fication": 4290,
      "feat": 4291,
      "ht": 4292,
      "har": 4293,
      "id": 4294,
      "ip": 4295,
      "ial": 4296,
      "iso": 4297,
      "ift": 4298,
      "ification": 4299,
      "kto": 4300,
      "line": 4301,
      "mil": 4302,
      "mit": 4303,
      "manage": 4304,
      "microsoft": 4305,
      "nal": 4306,
      "nlo": 4307,
      "op": 4308,
      "oun": 4309,
      "po": 4310,
      "pr": 4311,
      "pare": 4312,
      "pri": 4313,
      "power": 4314,
      "ru": 4315,
      "security": 4316,
      "te": 4317,
      "th": 4318,
      "tt": 4319,
      "table": 4320,
      "ue": 4321,
      "ure": 4322,
      "ust": 4323,
      "window": 4324,
      "zed": 4325,
      "ကွေ": 4326,
      "ကရာ": 4327,
      "ကလက်": 4328,
      "ကွတ်": 4329,
      "ကက္": 4330,
      "ကံ့": 4331,
      "ကညာ": 4332,
      "ကရက်": 4333,
      "ကရီ": 4334,
      "ကတောက်": 4335,
      "ကထိ": 4336,
      "ကဏ္": 4337,
      "ကပ္": 4338,
      "ကန္တာ": 4339,
      "ခလေး": 4340,
      "ခနဲ့": 4341,
      "ဂိ": 4342,
      "ဂိုက်": 4343,
      "ဂိမ်း": 4344,
      "ငေး": 4345,
      "ငလျင်": 4346,
      "စရိုက်": 4347,
      "စလောင်း": 4348,
      "စပျစ်": 4349,
      "စဉ့်": 4350,
      "ဆိမ့်": 4351,
      "ဇိ": 4352,
      "ဇူ": 4353,
      "ဇောင်း": 4354,
      "ဇွဲ": 4355,
      "ဇရာ": 4356,
      "ဇုန်": 4357,
      "ဇွန်": 4358,
      "ညိုး": 4359,
      "ညည်း": 4360,
      "ညိတ်": 4361,
      "ညည့်": 4362,
      "ဋေ": 4363,
      "ဌား": 4364,
      "တမ": 4365,
      "တဝင်": 4366,
      "တမန်": 4367,
      "တရွတ်": 4368,
      "တယော": 4369,
      "တစ္ဆေ": 4370,
      "ထုံ့": 4371,
      "ထရံ": 4372,
      "ဒက်": 4373,
      "ဒင်း": 4374,
      "ဒုံ": 4375,
      "ဒုန်း": 4376,
      "ဒယား": 4377,
      "ဒန္တ": 4378,
      "ဓံ": 4379,
      "ဓမင်း": 4380,
      "ဓလေ့": 4381,
      "နဝ": 4382,
      "နည်": 4383,
      "နုန်း": 4384,
      "ပန": 4385,
      "ပတာ": 4386,
      "ပသာ": 4387,
      "ပန္": 4388,
      "ပိမ့်": 4389,
      "ပလီ": 4390,
      "ပဝေ": 4391,
      "ပတ္တာ": 4392,
      "ပဆစ်": 4393,
      "ပရုတ်": 4394,
      "ပဒိုင်း": 4395,
      "ဖိုင်": 4396,
      "ဖင့်": 4397,
      "ဖွေး": 4398,
      "ဖလား": 4399,
      "ဖိန်း": 4400,
      "ဗား": 4401,
      "ဗောင်း": 4402,
      "ဗူး": 4403,
      "ဗရုတ်": 4404,
      "ဘေ": 4405,
      "ဘွင်း": 4406,
      "မဒ": 4407,
      "မချ": 4408,
      "မရာ": 4409,
      "မပြီး": 4410,
      "မလိုက်": 4411,
      "မနား": 4412,
      "မအား": 4413,
      "မယူ": 4414,
      "မရင်း": 4415,
      "မစပ်": 4416,
      "မချင်း": 4417,
      "မရဲ": 4418,
      "မမှန်": 4419,
      "မတိုး": 4420,
      "မတရား": 4421,
      "မဆိုင်": 4422,
      "မပြေ": 4423,
      "မသွင်း": 4424,
      "မထိ": 4425,
      "မလွတ်": 4426,
      "မနု": 4427,
      "မသိုး": 4428,
      "မကြည့်": 4429,
      "မခန့်": 4430,
      "မဆုတ်": 4431,
      "မမေ့": 4432,
      "မန္တ": 4433,
      "မထီ": 4434,
      "မချိ": 4435,
      "မစွက်ဖက်": 4436,
      "ယုံ့": 4437,
      "ယမန်": 4438,
      "ရွား": 4439,
      "ရောင့်": 4440,
      "ရမည်": 4441,
      "ရမ္မ": 4442,
      "ရမန်": 4443,
      "လဲ့": 4444,
      "လွေ": 4445,
      "လပတ်": 4446,
      "လဂ်": 4447,
      "ဝရ": 4448,
      "ဝိုက်": 4449,
      "ဝူး": 4450,
      "ဝဋ္": 4451,
      "ဝင်္က": 4452,
      "သမ်း": 4453,
      "သွေ": 4454,
      "သရာ": 4455,
      "သလက်": 4456,
      "သလုံး": 4457,
      "သခင်": 4458,
      "သရိုး": 4459,
      "သဟာ": 4460,
      "သကူ": 4461,
      "သလိပ်": 4462,
      "သဝေ": 4463,
      "သုံ့": 4464,
      "သရွတ်": 4465,
      "သွာ": 4466,
      "သဇင်": 4467,
      "သွပ်": 4468,
      "ဟိုက်": 4469,
      "ဟင်္": 4470,
      "ဠာ": 4471,
      "ဠိ": 4472,
      "ဠ်": 4473,
      "အန်း": 4474,
      "အည်း": 4475,
      "အပေး": 4476,
      "အလေ": 4477,
      "အလည်": 4478,
      "အလမ်း": 4479,
      "အပြု": 4480,
      "အိမ့်": 4481,
      "အပို": 4482,
      "အခေါ်": 4483,
      "အဖြူ": 4484,
      "အရှည်": 4485,
      "အပျောက်": 4486,
      "အဟော": 4487,
      "အဋ္ဌ": 4488,
      "အခြည်": 4489,
      "အလွမ်း": 4490,
      "အညောင်း": 4491,
      "အလျှံ": 4492,
      "အဘိုး": 4493,
      "အဏု": 4494,
      "ဥသ": 4495,
      "ဥုံ": 4496,
      "ဥက္": 4497,
      "ဥတ္တရ": 4498,
      "ဥဒါန်း": 4499,
      "့သွင်း": 4500,
      "ဿာ": 4501,
      "၁၇": 4502,
      "၇၃": 4503,
      "ိုအသေ": 4504,
      "ကြင့်": 4505,
      "ကြတော့": 4506,
      "ကြမယ်": 4507,
      "ကြတာပါ": 4508,
      "ကြသူများ": 4509,
      "ကြရအောင်": 4510,
      "ကြမ္မာ": 4511,
      "ပြမယ်": 4512,
      "ပြပွဲ": 4513,
      "ပြထားတဲ့": 4514,
      "ချုန်း": 4515,
      "ကျံ": 4516,
      "ကျို့": 4517,
      "ကျုတ်": 4518,
      "ကျရင်": 4519,
      "ကျတော်": 4520,
      "မှိန်": 4521,
      "မှောင့်": 4522,
      "ပါဒ်": 4523,
      "မြည့်": 4524,
      "ရှို့": 4525,
      "ရှိုင်း": 4526,
      "ကိုရီးယား": 4527,
      "ိုင်တွေ": 4528,
      "င့်သား": 4529,
      "ဖြောက်": 4530,
      "ဖြည့်": 4531,
      "နှောင့်": 4532,
      "နေသည်": 4533,
      "နေပြီး": 4534,
      "နေရေး": 4535,
      "နေလို့": 4536,
      "နေပုံ": 4537,
      "နေစဉ်": 4538,
      "နေရသည်": 4539,
      "နေရင်တော့": 4540,
      "နေရတာလဲ": 4541,
      "တာဗျ": 4542,
      "တယ်လီ": 4543,
      "ခြိမ့်": 4544,
      "တွေအတွက်": 4545,
      "လက်ချ": 4546,
      "လက်ကျ": 4547,
      "လက်စား": 4548,
      "လက်သား": 4549,
      "လက်ပြန်": 4550,
      "လက်ဆေး": 4551,
      "လက်ကုန်": 4552,
      "လက်ဆောင်": 4553,
      "လက်ရောက်": 4554,
      "လက်ပစ်": 4555,
      "လက်မောင်း": 4556,
      "လက်ပိုက်": 4557,
      "လက်ခေါက်": 4558,
      "လက်လှည့်": 4559,
      "လက်လွှတ်": 4560,
      "လက်ဝဲ": 4561,
      "လက်ပပ်": 4562,
      "တစ်စ": 4563,
      "တစ်လက်": 4564,
      "တစ်ရေး": 4565,
      "တစ်ဆုံး": 4566,
      "တစ်ကြောင်း": 4567,
      "တစ်ပြင်": 4568,
      "တစ်ဝက်": 4569,
      "တစ်ဆိတ်": 4570,
      "တစ်ဆယ်": 4571,
      "တစ်ခွန်း": 4572,
      "လှပေသည်": 4573,
      "စာမ": 4574,
      "စာရင်": 4575,
      "စာပို့": 4576,
      "ကြီးကြပ်": 4577,
      "ရေကျ": 4578,
      "ရေပူ": 4579,
      "ရေအိုး": 4580,
      "ရေပြင်": 4581,
      "ရေကူး": 4582,
      "ရေလောင်း": 4583,
      "ရေချမ်း": 4584,
      "ရေငုပ်": 4585,
      "ရေဒီယို": 4586,
      "သူနာ": 4587,
      "သူနဲ့": 4588,
      "သူကောင်း": 4589,
      "လုပ်စား": 4590,
      "လုပ်တော့": 4591,
      "လုပ်မယ်": 4592,
      "လုပ်လို့": 4593,
      "လုပ်ပါတယ်": 4594,
      "လုပ်သက်": 4595,
      "လုပ်ကိုင်": 4596,
      "လုပ်လိုက်ပါ": 4597,
      "စားကောင်း": 4598,
      "စားစရာ": 4599,
      "စားချင်တာ": 4600,
      "တဲ့အခါ": 4601,
      "လွန့်": 4602,
      "တော့ပဲ": 4603,
      "သည်ကား": 4604,
      "သားကြီး": 4605,
      "ဖြစ်ကြ": 4606,
      "ဖြစ်နေတာ": 4607,
      "အတို": 4608,
      "အတိုက်": 4609,
      "အတို့": 4610,
      "အတွဲ": 4611,
      "အတွန့်": 4612,
      "နာမ": 4613,
      "နာကျ": 4614,
      "နာခံ": 4615,
      "နာနတ်": 4616,
      "လျင်း": 4617,
      "လျောင်း": 4618,
      "ပေးနိုင်": 4619,
      "ပေးလို့": 4620,
      "ပေးရမယ်": 4621,
      "ပေးနိုင်ပါတယ်": 4622,
      "ပေးသွားမှာ": 4623,
      "ပေးရုံပဲ": 4624,
      "ပေးနေရတာလဲ": 4625,
      "လာလာ": 4626,
      "လာယူ": 4627,
      "လာရောက်": 4628,
      "လာမဲ့": 4629,
      "လူက": 4630,
      "လူလုံး": 4631,
      "လူရည်": 4632,
      "လူတွေကို": 4633,
      "လူထု": 4634,
      "လေးကို": 4635,
      "လေးနဲ့": 4636,
      "လေးညှင်း": 4637,
      "နဲ့နော်": 4638,
      "မိဘ": 4639,
      "မိဿ": 4640,
      "ရင်ခံ": 4641,
      "ရင်လည်း": 4642,
      "လိုက်ဖို့": 4643,
      "လိုက်ရတယ်": 4644,
      "ရှိရာ": 4645,
      "ရှိပြီး": 4646,
      "ရှိလား": 4647,
      "ရှိပြီ": 4648,
      "ရှိနေတာ": 4649,
      "ရှိသေးတယ်": 4650,
      "လေတဲ့": 4651,
      "လေသည်": 4652,
      "အသိုက်": 4653,
      "အသွင်း": 4654,
      "အသွင်": 4655,
      "ရေးတဲ့": 4656,
      "ရေးရင်": 4657,
      "ရေးချင်": 4658,
      "ရေးထားတာ": 4659,
      "ရေးထားရင်": 4660,
      "တော်ကြီး": 4661,
      "တော်မူ": 4662,
      "ရွဲ့": 4663,
      "သာသာ": 4664,
      "သာကီ": 4665,
      "သာဓု": 4666,
      "လုံးလုံး": 4667,
      "မီးမ": 4668,
      "မီးခံ": 4669,
      "မီးအိမ်": 4670,
      "မီးတောင်": 4671,
      "မီးသတ်": 4672,
      "မီးတောက်": 4673,
      "မီးရှူး": 4674,
      "တို့က": 4675,
      "ထားသော": 4676,
      "ပဲကြီး": 4677,
      "မျက်မှန်": 4678,
      "မျက်မြင်": 4679,
      "မျက်တွင်း": 4680,
      "မျက်ကြော": 4681,
      "ခင်ဗျာ": 4682,
      "ခင်ပွန်း": 4683,
      "အေးစက်": 4684,
      "အေးချမ်း": 4685,
      "နိုင်သည်": 4686,
      "နိုင်ဘူး": 4687,
      "နိုင်ရန်": 4688,
      "နိုင်ပါပြီ": 4689,
      "နိုင်ခဲ့ကြ": 4690,
      "နိုင်ပါသည်": 4691,
      "ကားရား": 4692,
      "သွားရ": 4693,
      "သွားတော့": 4694,
      "သွားသည်": 4695,
      "သွားပါတယ်": 4696,
      "သွားရည်": 4697,
      "သွားဖို့": 4698,
      "သွားလိုက်ပါ": 4699,
      "သွားလိမ့်မယ်": 4700,
      "လားလား": 4701,
      "သိက်": 4702,
      "သိထား": 4703,
      "သိပြီ": 4704,
      "သိကြား": 4705,
      "သိပ္ပ": 4706,
      "သိကြပါတယ်": 4707,
      "စိတ်ချ": 4708,
      "စိတ်ပါ": 4709,
      "စိတ်ဖြေ": 4710,
      "လဲကျ": 4711,
      "အရော": 4712,
      "အရိုအသေ": 4713,
      "ပန်းဆွဲ": 4714,
      "ပန်းကုံး": 4715,
      "ကာယ်": 4716,
      "သံ့": 4717,
      "သံပါ": 4718,
      "သံတူ": 4719,
      "သံသရာ": 4720,
      "ဦးပေါက်": 4721,
      "ဦးတိုက်": 4722,
      "ဦးဆံ": 4723,
      "ဦးစောက်": 4724,
      "ဘာလုပ်": 4725,
      "ကိုယ်ရေး": 4726,
      "ကိုယ်လုံး": 4727,
      "ကိုယ်လည်း": 4728,
      "ကိုယ်စီ": 4729,
      "ကိုယ်ဝန်": 4730,
      "ကိုယ်ကျိုး": 4731,
      "အစီး": 4732,
      "အစို့": 4733,
      "အစောင့်": 4734,
      "နားအေး": 4735,
      "နားရည်ဝ": 4736,
      "လို့လည်း": 4737,
      "အကြေး": 4738,
      "အကြပ်": 4739,
      "အကြုံ": 4740,
      "အကြောက်": 4741,
      "အကြောင်": 4742,
      "အကြိုက်": 4743,
      "အချေ": 4744,
      "အချော": 4745,
      "အချမ်း": 4746,
      "အချိတ်": 4747,
      "အချွဲ": 4748,
      "အားလပ်": 4749,
      "အားကိုး": 4750,
      "အားလျော်": 4751,
      "ခွါ": 4752,
      "ခုတင်": 4753,
      "ခုနှစ်": 4754,
      "ဝင်ပေါက်": 4755,
      "ဝင်ရိုး": 4756,
      "ဖျံ": 4757,
      "ဖျန်": 4758,
      "တိုက်ပွဲ": 4759,
      "ပြန်ကြည့်": 4760,
      "ပြန်တမ်း": 4761,
      "ပြန်အမ်း": 4762,
      "နောက်လိုက်": 4763,
      "နောက်ကျော": 4764,
      "တ္တီ": 4765,
      "တ္ထာ": 4766,
      "ဆေးဖော်": 4767,
      "ပြောမယ်": 4768,
      "ပြောတတ်": 4769,
      "ပြောတာပါ": 4770,
      "ခြေထောက်": 4771,
      "ခြေမြန်": 4772,
      "ခြေနင်း": 4773,
      "ဒီအတိုင်းပဲ": 4774,
      "ပုံက": 4775,
      "ပုံ့": 4776,
      "ပုံတို့": 4777,
      "ပုံငွေ": 4778,
      "ပုံတူ": 4779,
      "မင်းကို": 4780,
      "မင်းကြီး": 4781,
      "သေပေါက်": 4782,
      "သေရောဂါ": 4783,
      "တက်ရန်": 4784,
      "ကောင်းတဲ့": 4785,
      "ချက်မ": 4786,
      "ချက်နည်း": 4787,
      "ဝါဟ": 4788,
      "ဝါကြီး": 4789,
      "ဝါဒီ": 4790,
      "ဝါသနာ": 4791,
      "ဝါယမ": 4792,
      "ဒါက": 4793,
      "ဒါရိုက်တာ": 4794,
      "ပွဲစား": 4795,
      "အာပတ်": 4796,
      "အာယု": 4797,
      "ခဲ့ပြီ": 4798,
      "ခဲ့ရတာ": 4799,
      "ခဲ့ဖူးတယ်": 4800,
      "တံတိုင်း": 4801,
      "တံငါ": 4802,
      "ခေါင်းရွက်": 4803,
      "ဗျပ်": 4804,
      "ပေါ်မှာ": 4805,
      "တောင်သူ": 4806,
      "တောင်ဝှေး": 4807,
      "တောင်ကိုရီးယား": 4808,
      "အဆို့": 4809,
      "အဆုတ်": 4810,
      "အထာ": 4811,
      "အထပ်": 4812,
      "အထိုင်": 4813,
      "ဖွံ့": 4814,
      "အကပ်": 4815,
      "အကော်": 4816,
      "အကူး": 4817,
      "အကွဲ": 4818,
      "ermediate": 4819,
      "ငါးဖယ်": 4820,
      "ငါးကြင်း": 4821,
      "မိုးကျ": 4822,
      "မိုးချုပ်": 4823,
      "မိုးရွာ": 4824,
      "အောင်ပွဲ": 4825,
      "con": 4826,
      "cont": 4827,
      "လမ်းမှန်": 4828,
      "လမ်းညွှန်": 4829,
      "နေ့စဉ်": 4830,
      "နေ့လယ်": 4831,
      "နေ့ခင်း": 4832,
      "ပုရ": 4833,
      "ပုရွက်": 4834,
      "ပုဗ္ဗ": 4835,
      "ပုလွေ": 4836,
      "မြေစာ": 4837,
      "မြေပဲ": 4838,
      "မြေသင်း": 4839,
      "မြေဩဇာ": 4840,
      "ယူတယ်": 4841,
      "ယူထား": 4842,
      "ယူနီ": 4843,
      "ယူလိုက်တဲ့": 4844,
      "စစ်ရှုံး": 4845,
      "စစ်ခေါင်းဆောင်": 4846,
      "မျိုးတွေ": 4847,
      "မျိုးရိုး": 4848,
      "ရိုးမ": 4849,
      "ရိုးကျ": 4850,
      "ချင်လား": 4851,
      "ချင်ပါတယ်": 4852,
      "နှစ်နှစ်": 4853,
      "နှစ်ဆယ်": 4854,
      "ပတ်လမ်း": 4855,
      "ပတ်ပတ်": 4856,
      "ပတ်တီး": 4857,
      "ဟာသ": 4858,
      "ပြုသည်": 4859,
      "ရင်းနှီး": 4860,
      "ငယ်မူ": 4861,
      "အခန့်": 4862,
      "ရှင့်": 4863,
      "ဘယ်တော့": 4864,
      "ဘယ်နား": 4865,
      "ဘယ်အရာ": 4866,
      "ပြီလား": 4867,
      "ယာန": 4868,
      "သွေးသား": 4869,
      "ကုန်သည်": 4870,
      "ညှောင့်": 4871,
      "ယောက်မ": 4872,
      "သီတ": 4873,
      "သီကာ": 4874,
      "တန်းတန်း": 4875,
      "တန်းတူညီမျှ": 4876,
      "အမြင့်": 4877,
      "အမြွှာ": 4878,
      "ပေါင်းကူး": 4879,
      "သင်တုန်း": 4880,
      "ချင်းစာ": 4881,
      "ချင်းစီ": 4882,
      "ပူတိုက်": 4883,
      "ပေကတ်": 4884,
      "ပေကလတ်": 4885,
      "ဘောမ": 4886,
      "လောက်ကို": 4887,
      "လောက်ပဲ": 4888,
      "သစ်စ": 4889,
      "သစ်တွေ": 4890,
      "သစ်စေး": 4891,
      "အလီ": 4892,
      "အလတ်": 4893,
      "စကားလုံး": 4894,
      "အပြား": 4895,
      "အပြောင်": 4896,
      "အပြောင်း": 4897,
      "စေလို": 4898,
      "စေဖို့": 4899,
      "ဖက်ဆွတ်": 4900,
      "ရုပ်သေး": 4901,
      "ရုပ်စုံ": 4902,
      "ဟုတ်လား": 4903,
      "မျှတ": 4904,
      "ဆွဲချ": 4905,
      "etc": 4906,
      "eter": 4907,
      "etho": 4908,
      "ဓာန": 4909,
      "မုဒ": 4910,
      "စီးနင်း": 4911,
      "ချုပ်ပြီး": 4912,
      "tifi": 4913,
      "တည်ရာ": 4914,
      "စွင့်": 4915,
      "ကောက်ရိုး": 4916,
      "ကောက်ညှင်း": 4917,
      "တန်တန်": 4918,
      "တန်ခူး": 4919,
      "နီတိ": 4920,
      "နီပြည်": 4921,
      "မ္ပ": 4922,
      "ရောက်နေတဲ့": 4923,
      "ရောက်လာပြီး": 4924,
      "ကျောက်စက်": 4925,
      "ကျောက်ဆစ်": 4926,
      "ကျောက်ဆူး": 4927,
      "က္ခိ": 4928,
      "arbage": 4929,
      "onal": 4930,
      "ဆီမှ": 4931,
      "ဆီကို": 4932,
      "ကြည့်ပါလား": 4933,
      "တွေ့သည်": 4934,
      "တွေ့တွေ့": 4935,
      "တွေ့ခါစ": 4936,
      "ကောင်မလေး": 4937,
      "မည်လား": 4938,
      "မည်သို့": 4939,
      "သေးသေး": 4940,
      "ဂျပ်": 4941,
      "ဂျစ်": 4942,
      "ဆင်တူ": 4943,
      "တိုးတက်": 4944,
      "တရားဥပဒေ": 4945,
      "ကန်တော့": 4946,
      "ကန်စွန်း": 4947,
      "ဒေါင့်": 4948,
      "စီစီ": 4949,
      "လင်လု": 4950,
      "မြင်တွေ့": 4951,
      "မြင်မြင်": 4952,
      "အတွက်ကြောင့်": 4953,
      "မျက်နှာပန်း": 4954,
      "အချိန်ကို": 4955,
      "ဝန်ကြီး": 4956,
      "ဝတ်စား": 4957,
      "ပိုင်းမှာ": 4958,
      "လယ်သမား": 4959,
      "နံရံ": 4960,
      "ပစ်ကွင်း": 4961,
      "ရိကန်": 4962,
      "ရန်ဖြစ်": 4963,
      "ရန်ပုံငွေ": 4964,
      "သင်္ခါ": 4965,
      "အလုပ်ကတော့": 4966,
      "ဝမ်းစာ": 4967,
      "ထုတ်ပေးပါတယ်": 4968,
      "ကြာသပ": 4969,
      "တိုင်းပြည်": 4970,
      "တည်းက": 4971,
      "ပြည်ကြီး": 4972,
      "ပြည်သူ": 4973,
      "ပြည်တွင်း": 4974,
      "ရွှေဒင်္ဂါး": 4975,
      "သို့လော": 4976,
      "တွေကိုလည်း": 4977,
      "တစ်ခုတည်း": 4978,
      "ဓာတ်မီး": 4979,
      "ray": 4980,
      "တီဗွီ": 4981,
      "မူလီ": 4982,
      "ကိုင်တွယ်": 4983,
      "ဈေးကြီး": 4984,
      "ကူးစက်": 4985,
      "ခရစ်": 4986,
      "အဖာ": 4987,
      "အဖတ်": 4988,
      "အဖိတ်": 4989,
      "အဖွဲ": 4990,
      "ချိန်မှာ": 4991,
      "ချိန်ထားတယ်": 4992,
      "တွမ်": 4993,
      "အပ်ချုပ်": 4994,
      "ထင်ပါတယ်": 4995,
      "အနိ": 4996,
      "အနုပ်": 4997,
      "အနံ့": 4998,
      "rol": 4999,
      "ဂါထာ": 5000,
      "ပညာရေး": 5001,
      "ခွဲစိတ်": 5002,
      "ပွါး": 5003,
      "ရှေ့မှောက်": 5004,
      "ဖြတ်လမ်း": 5005,
      "ပိုင်ရှင်": 5006,
      "ပိုင်ဆိုင်": 5007,
      "အဲသည်": 5008,
      "တောင်းဆို": 5009,
      "ရွက်ထည်": 5010,
      "mpus": 5011,
      "အူလျှောက်": 5012,
      "ထောက်ခံ": 5013,
      "ဘက်ကို": 5014,
      "ဘက်ဆဲ": 5015,
      "စိုက်စိုက်": 5016,
      "စိုက်ပျိုး": 5017,
      "စံကား": 5018,
      "ထိုင်ပြီး": 5019,
      "ထိုင်ထိုင်": 5020,
      "နယ်မြေ": 5021,
      "ဝိနည်း": 5022,
      "ခေါ်ပါ": 5023,
      "ခေါက်ဆွဲ": 5024,
      "ခေါက်ချိုး": 5025,
      "ကလန်": 5026,
      "နိဒါန်း": 5027,
      "ကလေးတွေ": 5028,
      "ခုံညင်း": 5029,
      "နှုတ်သီး": 5030,
      "နှုတ်ဆက်": 5031,
      "ဆရာများ": 5032,
      "ဆရာဝန်": 5033,
      "ရှာဖွေ": 5034,
      "စေ့စပ်": 5035,
      "လုံချည်": 5036,
      "ရှင်းလင်း": 5037,
      "ရှင်းရှင်း": 5038,
      "စိမ်းစား": 5039,
      "ကမ်းပြို": 5040,
      "ခွေးလှေး": 5041,
      "စိုးလို့": 5042,
      "မြင်းမို": 5043,
      "လိုက်တာပဲ": 5044,
      "ယောင်လည်": 5045,
      "သဘောတရား": 5046,
      "အတွင်းသို့": 5047,
      "အတွင်းမှာပဲ": 5048,
      "အဲ့လူ": 5049,
      "အဲ့တုန်းက": 5050,
      "ဖော်ပြ": 5051,
      "ဟင်းရွက်": 5052,
      "tional": 5053,
      "ဉာဉ်": 5054,
      "ဖောက်ပြီး": 5055,
      "ဖောက်ပြန်": 5056,
      "မွှာ": 5057,
      "မွှန်": 5058,
      "အရာရာ": 5059,
      "မြီးဆွဲ": 5060,
      "ထူးဆန်း": 5061,
      "အပေါ်ကလို": 5062,
      "မေမေ": 5063,
      "ချစ်တယ်": 5064,
      "အခုထိ": 5065,
      "ကတ်ကြေး": 5066,
      "ဖိုလ်": 5067,
      "စရာပဲ": 5068,
      "မြင့်လာတာ": 5069,
      "နေတာပါ": 5070,
      "စာအုပ်ဟာ": 5071,
      "စာအုပ်ဆိုင်": 5072,
      "အိပ်ရာ": 5073,
      "လောကွတ်": 5074,
      "တွဲတက်": 5075,
      "ထမင်းရည်": 5076,
      "သည်းခံ": 5077,
      "သမ္မာ": 5078,
      "သမ္ဘာ": 5079,
      "ဖားပေါင်": 5080,
      "လွဲရင်": 5081,
      "လွှတ်လိုက်ရမှ": 5082,
      "ကြံကြံ": 5083,
      "ဂုဏ်ထူး": 5084,
      "ထည့်သွင်း": 5085,
      "အိုနာ": 5086,
      "ကြွကြွ": 5087,
      "လိုက်ပါဗျာ": 5088,
      "စောက်လုပ်": 5089,
      "တုတ်တုတ်": 5090,
      "ပ္ပန်": 5091,
      "ဗြင်း": 5092,
      "ဗြဟ္": 5093,
      "ပြောင်ပြောင်": 5094,
      "ချောချော": 5095,
      "နှိပ်ပြီး": 5096,
      "နှိပ်စက်": 5097,
      "properties": 5098,
      "unmanaged": 5099,
      "အင်အား": 5100,
      "အင်ဂျင်": 5101,
      "ပီပီ": 5102,
      "ရုန့်": 5103,
      "ရုက္ခ": 5104,
      "အဝန်း": 5105,
      "ite": 5106,
      "ဆယ်လီ": 5107,
      "အလှန်": 5108,
      "lication": 5109,
      "ကြောင့်ပဲ": 5110,
      "Coach": 5111,
      "Collection": 5112,
      "Coding": 5113,
      "ထိန်းသိမ်း": 5114,
      "ထိန်းညှိ": 5115,
      "ပလတ်": 5116,
      "ဖမ်းဝရမ်း": 5117,
      "မတား": 5118,
      "အမှိုက်": 5119,
      "အမှူး": 5120,
      "stru": 5121,
      "စဉ်းလဲ": 5122,
      "ထန်းလျက်": 5123,
      "ထည့်သွင်း": 5124,
      "နီးစပ်": 5125,
      "ကန့်သတ်": 5126,
      "မတ်မတ်": 5127,
      "မန်းလေး": 5128,
      "မသိတဲ့": 5129,
      "အရှုပ်": 5130,
      "အမျိုးသမီး": 5131,
      "ညီမကို": 5132,
      "pping": 5133,
      "ဘဝမှာ": 5134,
      "ပြုံးပြုံး": 5135,
      "ကျပ်ပြည့်": 5136,
      "အသက်ဝင်": 5137,
      "ခွန်စိုက်": 5138,
      "ပြင်းပြင်း": 5139,
      "အတူတူ": 5140,
      "အမေရိကန်": 5141,
      "လွှဲစာ": 5142,
      "ခိုင်းလို့": 5143,
      "သောင်းသောင်း": 5144,
      "သန္တရ": 5145,
      "မြတ်နိုး": 5146,
      "ရှေးဦး": 5147,
      "ရှေးဟောင်း": 5148,
      "ပျားတူ": 5149,
      "နာရီခန့်": 5150,
      "ကုလားထိုင်": 5151,
      "ssword": 5152,
      "တိတ်တိတ်": 5153,
      "အငတ်": 5154,
      "ကျည်တောက်": 5155,
      "ကျည်ပွေ့": 5156,
      "အသုံးပြုရပါတယ်": 5157,
      "ကြောက်စရာ": 5158,
      "ပြက်ပြက်": 5159,
      "စွယ်ကျိုး": 5160,
      "ထိုနောက်": 5161,
      "ထိုအရာ": 5162,
      "ကျောရိုး": 5163,
      "ငွေ့ရည်": 5164,
      "ခန့်မှန်း": 5165,
      "ပထဝီ": 5166,
      "ရမှာက": 5167,
      "ရမှာတဲ့": 5168,
      "တကယ်လို့": 5169,
      "ပြိုင်ပွဲ": 5170,
      "နိုင်ပါတယ်ဗျ": 5171,
      "အောင်မြင်သွားပြီ": 5172,
      "အောင်မြင်ခဲ့တဲ့": 5173,
      "level": 5174,
      "ယဉ်ကျေး": 5175,
      "အဖြစ်အပျက်": 5176,
      "ကိုယ့်ပါ": 5177,
      "ပျော့စိ": 5178,
      "အဆင်သင့်": 5179,
      "သမ္မတအိမ်": 5180,
      "ကမ္ဘာ့": 5181,
      "ကမ္ဘာလုံး": 5182,
      "ပရိသတ်": 5183,
      "ဘော်လီ": 5184,
      "မားမား": 5185,
      "သည့်အခါ": 5186,
      "လျှပ်စား": 5187,
      "စောဒ": 5188,
      "ယောက္ခမ": 5189,
      "ကြုံဖူးတယ်": 5190,
      "ရှိနေပြီး": 5191,
      "ရှိနေပြီးသား": 5192,
      "ရှိနေပါလိမ့်မယ်": 5193,
      "နားလည်ရင်": 5194,
      "အကြမ်းဖက်": 5195,
      "ဒါပေမယ့်": 5196,
      "အထက်တန်း": 5197,
      "တချို့ကတော့": 5198,
      "ဒိုင်းဒိုင်း": 5199,
      "ကျီးကန်း": 5200,
      "ခပ်သိမ်း": 5201,
      "ဘူတာ": 5202,
      "မပြောဘူး": 5203,
      "မပြောခင်": 5204,
      "ချီးမွမ်း": 5205,
      "ဒုက္ခသည်": 5206,
      "add": 5207,
      "urce": 5208,
      "ဝီထိ": 5209,
      "သန့်စင်": 5210,
      "အက်စ်": 5211,
      "ကြင်နာ": 5212,
      "လျော့ဖို့": 5213,
      "ပဉ္စင်း": 5214,
      "ရပြီလား": 5215,
      "ဝတ္တရား": 5216,
      "ချောက်ချား": 5217,
      "မျှော်လင့်": 5218,
      "မည်သည့်အရာ": 5219,
      "name": 5220,
      "အငြိမ့်": 5221,
      "မှီခို": 5222,
      "ရာသီဥတု": 5223,
      "သက်သာစေ": 5224,
      "မွှားမွှား": 5225,
      "မတူတဲ့": 5226,
      "ယိုးဒယား": 5227,
      "ရဟတ်": 5228,
      "အရေအတွက်": 5229,
      "နှပ်နေတဲ့": 5230,
      "ပေးထားပါတယ်": 5231,
      "ပေးထားသော": 5232,
      "ပေးထားပါသေးတယ်": 5233,
      "သင့်သည်": 5234,
      "downlo": 5235,
      "excep": 5236,
      "လိုးမ": 5237,
      "အခွင့်အရေး": 5238,
      "ပြောက်ကျား": 5239,
      "လေယာဉ်ပျံ": 5240,
      "အသစ်တွေ": 5241,
      "ဗုဒ္ဓဟူး": 5242,
      "လုပ်တာလဲ": 5243,
      "အပြည့်နဲ့": 5244,
      "ငါ့ကို": 5245,
      "အဆင်ပြေပါတယ်": 5246,
      "location": 5247,
      "password": 5248,
      "versary": 5249,
      "ဆည်းလည်း": 5250,
      "စစ်ဆေးပေးခြင်း": 5251,
      "ကုဒ်က": 5252,
      "ဌာနချုပ်": 5253,
      "ဂေါ်ဖီ": 5254,
      "ight": 5255,
      "သာသနာ့": 5256,
      "ရွှန်းရွှန်း": 5257,
      "အမြှောက်": 5258,
      "ပံ့သကူ": 5259,
      "ဖေဖေ": 5260,
      "သွင်သွင်": 5261,
      "အိုက်တင်": 5262,
      "အပေါင်းအသင်း": 5263,
      "အမှန်တရား": 5264,
      "ကျနော်တို့": 5265,
      "သူရဲကောင်း": 5266,
      "အတ္ထု": 5267,
      "ဆိုလိုပါတယ်": 5268,
      "ဆိုလိုချင်တာ": 5269,
      "အသီးသီး": 5270,
      "လိုချင်တဲ့": 5271,
      "သွားပါ့မယ်": 5272,
      "ခဲ့တာလဲ": 5273,
      "ဗျူရို": 5274,
      "ရှော့တိုက်ဒုံးများ": 5275,
      "ကတည်းက": 5276,
      "တိန်ညင်": 5277,
      "လ္လာ": 5278,
      "အမှားမှား": 5279,
      "အကူအညီ": 5280,
      "အဲဒါကို": 5281,
      "Libr": 5282,
      "active": 5283,
      "access": 5284,
      "application": 5285,
      "nipping": 5286,
      "niversary": 5287,
      "ကရင်နီပြည်": 5288,
      "ဓူတင်": 5289,
      "ရရှိနိုင်မှာ": 5290,
      "လုပ်နိုင်အောင်": 5291,
      "ထားရင်လည်း": 5292,
      "အစည်းအဝေး": 5293,
      "commun": 5294,
      "command": 5295,
      "deskto": 5296,
      "interpr": 5297,
      "မနာလို": 5298,
      "ဝုစ်": 5299,
      "အကာအရံ": 5300,
      "စိတ်ပြေတယ်": 5301,
      "စိတ်ပြေလျော့ဖို့": 5302,
      "ကိုယ်စားလှယ်": 5303,
      "အမြန်ဆုံး": 5304,
      "ဘောလုံးပွဲ": 5305,
      "ရောက်ရှိချိန်": 5306,
      "စီမံကိန်း": 5307,
      "လွတ်လပ်စွာ": 5308,
      "အရာရှိတွေ": 5309,
      "မုန်လာဥ": 5310,
      "စ္ဆေဒ": 5311,
      "Anniversary": 5312,
      "Integ": 5313,
      "Intermediate": 5314,
      "ဇောက်ထိုး": 5315,
      "အတွေ့အကြုံ": 5316,
      "ကျွက်ကျွက်": 5317,
      "ကြည့်ပါ့မယ်": 5318,
      "ကုသိုလ်": 5319,
      "ခက်ခဲစွာ": 5320,
      "စသည်ဖြစ်": 5321,
      "ရွေပေါ်": 5322,
      "ပေါက်ဖွားလာတဲ့": 5323,
      "ချက်တွေကတော့": 5324,
      "ပုဏ္ဏား": 5325,
      "နှစ်သစ်မှာ": 5326,
      "ဇန်နဝါရီလ": 5327,
      "Online": 5328,
      "Programm": 5329,
      "Unmanaged": 5330,
      "asic": 5331,
      "butt": 5332,
      "famil": 5333,
      "handling": 5334,
      "value": 5335,
      "နနွင်း": 5336,
      "ဧရာဝတီ": 5337,
      "လာပြောရင်": 5338,
      "ရင်ခွင်ပိုက်": 5339,
      "လျှို့ဝှက်": 5340,
      "အုပ်ချုပ်ရေး": 5341,
      "ညီအစ်ကို": 5342,
      "နံနက်ခင်း": 5343,
      "မွေးမြူရေး": 5344,
      "ဇာတ်ဝင်ခန်း": 5345,
      "ကူးယူခဲ့သော": 5346,
      "နီးပါးကို": 5347,
      "အငှား": 5348,
      "advanced": 5349,
      "တာဝန်ရှိသူ": 5350,
      "တပ်ဖွဲ့ဝင်တွေ": 5351,
      "မတိုင်ခင်တည်းက": 5352,
      "Access": 5353,
      "ခန့်": 5354,
      "ပညတ်": 5355,
      "လျစ်လျူ": 5356,
      "သိရှိရသည်": 5357,
      "အစောက": 5358,
      "တံမြက်စည်း": 5359,
      "ပတ်သက်ပြီး": 5360,
      "အဖမ်းခံ": 5361,
      "ပစ္စုပ္ပန်": 5362,
      "သရဏဂုံ": 5363,
      "ပဋိပက္ခ": 5364,
      "280": 5365,
      "Campus": 5366,
      "Click": 5367,
      "Error": 5368,
      "Free": 5369,
      "Language": 5370,
      "Personal": 5371,
      "cross": 5372,
      "enter": 5373,
      "from": 5374,
      "feature": 5375,
      "hardware": 5376,
      "ount": 5377,
      "parent": 5378,
      "ကန္တာရ": 5379,
      "ပသာဒ": 5380,
      "ပန္နက်": 5381,
      "ရမ္မက်": 5382,
      "ဝဋ္ဋ": 5383,
      "ကျတော်က": 5384,
      "လုပ်လိုက်ပါလား": 5385,
      "လာလာအပ်": 5386,
      "သိပ္ပံ": 5387,
      "အားလျော်စွာ": 5388,
      "control": 5389,
      "နှစ်ဆယ့်": 5390,
      "ethod": 5391,
      "တွေ့ခါစမှာ": 5392,
      "သင်္ခါရ": 5393,
      "ကြာသပတေး": 5394,
      "ဘက်ဆဲလား": 5395,
      "မြင်းမိုရ်": 5396,
      "structure": 5397,
      "download": 5398,
      "exception": 5399,
      "desktop": 5400,
      "interpreter": 5401,
      "Integer": 5402,
      "button": 5403,
      "family": 5404,
      "Cre": 5405,
      "ax": 5406,
      "fer": 5407,
      "tes": 5408,
      "ကဆ": 5409,
      "က့်": 5410,
      "ကပါ": 5411,
      "ကလေ": 5412,
      "ကတက်": 5413,
      "ကပင်": 5414,
      "ကပွဲ": 5415,
      "ကသစ်": 5416,
      "ကရိ": 5417,
      "ကတုံး": 5418,
      "ကတုတ်": 5419,
      "ကဏ္ဍ": 5420,
      "ကညစ်": 5421,
      "ကသို": 5422,
      "ကညင်": 5423,
      "ကတ္တီ": 5424,
      "ခယ": 5425,
      "ခုပ်": 5426,
      "ခရေ": 5427,
      "ခဝါ": 5428,
      "ခပေါင်း": 5429,
      "ခလယ်": 5430,
      "ခွေ့": 5431,
      "ခနော်": 5432,
      "ခမောက်": 5433,
      "ဂဃ": 5434,
      "ဂဟ": 5435,
      "ဂေ": 5436,
      "ဂတ်": 5437,
      "ဂန်း": 5438,
      "ဂလီ": 5439,
      "ဂယက်": 5440,
      "ဂဟေ": 5441,
      "ငတိ": 5442,
      "ငုံ့": 5443,
      "ငချိပ်": 5444,
      "ငပြုပ်": 5445,
      "စွေ": 5446,
      "စုံး": 5447,
      "စနေ": 5448,
      "စန့်": 5449,
      "စည့်": 5450,
      "စတော်": 5451,
      "စင်္": 5452,
      "စတန်": 5453,
      "စလင်": 5454,
      "စလင်း": 5455,
      "စရွေး": 5456,
      "စဥ်း": 5457,
      "ဆမ်း": 5458,
      "ဆိန်": 5459,
      "ဆွေ့": 5460,
      "ဆလံ": 5461,
      "ဆွံ": 5462,
      "ဆဋ္ဌ": 5463,
      "ဇန": 5464,
      "ဇင်း": 5465,
      "ဇနာ": 5466,
      "ဇရပ်": 5467,
      "ဇနီး": 5468,
      "ဉတ်": 5469,
      "ညဲ": 5470,
      "ညေး": 5471,
      "ညီး": 5472,
      "ဍ္": 5473,
      "တဆ": 5474,
      "တရာ": 5475,
      "တလူ": 5476,
      "တန္": 5477,
      "တနေ့": 5478,
      "တစေ": 5479,
      "တစုံ": 5480,
      "တဘက်": 5481,
      "တပို": 5482,
      "တစောင်း": 5483,
      "တမြန်": 5484,
      "တလိမ့်": 5485,
      "တဆိတ်": 5486,
      "တမန်း": 5487,
      "တပြက်": 5488,
      "တမေ့": 5489,
      "တမံ": 5490,
      "တငံ့": 5491,
      "တလိန်း": 5492,
      "ထရ": 5493,
      "ထိန်": 5494,
      "ထေ့": 5495,
      "ထရီ": 5496,
      "ထရန်": 5497,
      "ထိမ်း": 5498,
      "ထွန့်": 5499,
      "ထနောင်း": 5500,
      "ဒိုက်": 5501,
      "ဒလက်": 5502,
      "ဒန့်": 5503,
      "ဒကာ": 5504,
      "ဒရို": 5505,
      "ဒဏ္ဍာ": 5506,
      "ဒက္ခိ": 5507,
      "ဓါး": 5508,
      "နလ": 5509,
      "နုံ": 5510,
      "နော့": 5511,
      "နပန်း": 5512,
      "နကျယ်": 5513,
      "နဝင်း": 5514,
      "နဖာ": 5515,
      "ပခြ": 5516,
      "ပလေ": 5517,
      "ပတူ": 5518,
      "ပနံ": 5519,
      "ပလပ်": 5520,
      "ပစောက်": 5521,
      "ပယော": 5522,
      "ပဒေသ": 5523,
      "ဖလ": 5524,
      "ဖန်း": 5525,
      "ဖခင်": 5526,
      "ဖမိုး": 5527,
      "ဖရင်း": 5528,
      "ဖရဲ": 5529,
      "ဗောက်": 5530,
      "ဗွက်": 5531,
      "ဗထက်": 5532,
      "ဗလုံ": 5533,
      "ဘဘ": 5534,
      "မပ်": 5535,
      "မန္": 5536,
      "မနည်း": 5537,
      "မပေါ်": 5538,
      "မစစ်": 5539,
      "မကပ်": 5540,
      "မစီး": 5541,
      "မမည်": 5542,
      "မသုံး": 5543,
      "မဝတ်": 5544,
      "မစင်": 5545,
      "မပျက်": 5546,
      "မစိုက်": 5547,
      "မရှာ": 5548,
      "မကမ်း": 5549,
      "မပျော်": 5550,
      "မကျိုး": 5551,
      "မပြည့်": 5552,
      "မအိပ်": 5553,
      "မလွဲ": 5554,
      "မလိမ်": 5555,
      "မကြောက်": 5556,
      "မဏ္ဍ": 5557,
      "မလှုပ်": 5558,
      "မဆော့": 5559,
      "မအေ": 5560,
      "မဂ်": 5561,
      "မနော": 5562,
      "မဟေ": 5563,
      "မဆံ့": 5564,
      "မဟော်": 5565,
      "ယက": 5566,
      "ယေ": 5567,
      "ယတ်": 5568,
      "ယမ်": 5569,
      "ယို့": 5570,
      "ယတိ": 5571,
      "ယမင်း": 5572,
      "ယထာ": 5573,
      "ရမ": 5574,
      "ရဿ": 5575,
      "ရတော့": 5576,
      "ရပြန်": 5577,
      "ရခိုင်": 5578,
      "ရခက်": 5579,
      "ရလဒ်": 5580,
      "လဘ": 5581,
      "လများ": 5582,
      "လပို့": 5583,
      "လဗေဒ": 5584,
      "လင်္ကာ": 5585,
      "လမိုင်း": 5586,
      "ဝသ": 5587,
      "ဝိုး": 5588,
      "ဝေ့": 5589,
      "ဝဏ်": 5590,
      "ဝသီ": 5591,
      "ဝကွက်": 5592,
      "ဝဂ်": 5593,
      "ဝဇ္ဇ": 5594,
      "သပေါက်": 5595,
      "သွေ့": 5596,
      "သိုလ်": 5597,
      "သဗ္ဗ": 5598,
      "သွဲ့": 5599,
      "သဟောက်": 5600,
      "ဟလ": 5601,
      "ဟဿ": 5602,
      "ဟေး": 5603,
      "ဟီး": 5604,
      "ဟုပ်": 5605,
      "ဟုံး": 5606,
      "ဟွန်း": 5607,
      "အဘ": 5608,
      "အပေါ": 5609,
      "အလား": 5610,
      "အလို့": 5611,
      "အပုံ": 5612,
      "အခေါင်း": 5613,
      "အအုပ်": 5614,
      "အနီ": 5615,
      "အဖို့": 5616,
      "အပေါ့": 5617,
      "အပွ": 5618,
      "အဖြတ်": 5619,
      "အဝက်": 5620,
      "အခေါက်": 5621,
      "အပွား": 5622,
      "အနှိပ်": 5623,
      "အလွှာ": 5624,
      "အဟောင်း": 5625,
      "အယုံ": 5626,
      "အယုတ်": 5627,
      "အအုံ": 5628,
      "အခြမ်း": 5629,
      "အခွံ": 5630,
      "အယှက်": 5631,
      "အလျော့": 5632,
      "အဖြုန်း": 5633,
      "အလျှို": 5634,
      "အရွှတ်": 5635,
      "အဖျော်": 5636,
      "အခွင့်": 5637,
      "အခြာ": 5638,
      "ဤမျှ": 5639,
      "ဥဩ": 5640,
      "ဥ္": 5641,
      "ဧကန်": 5642,
      "ဩဝါဒ": 5643,
      "ိက်": 5644,
      "ိန့်": 5645,
      "ုက်": 5646,
      "ုန့်": 5647,
      "ံး": 5648,
      "၂၄": 5649,
      "ိုငြ": 5650,
      "ိုရ်": 5651,
      "ကြုံး": 5652,
      "ကြငှ": 5653,
      "ပြပြ": 5654,
      "ပြုံ": 5655,
      "ပြိုင်း": 5656,
      "ပြတင်း": 5657,
      "ပြဇာတ်": 5658,
      "ချန်း": 5659,
      "ချွေ": 5660,
      "ချော့": 5661,
      "ကျနေ": 5662,
      "ကျိပ်": 5663,
      "ကျပန်း": 5664,
      "ကျအောင်": 5665,
      "မှုန်း": 5666,
      "ပါက": 5667,
      "ပါလ": 5668,
      "ပါ့": 5669,
      "ပါလေ": 5670,
      "ပါဝါ": 5671,
      "ပါရော": 5672,
      "ပါရဲ့": 5673,
      "ပါတင်း": 5674,
      "ပါလီ": 5675,
      "ပါမော": 5676,
      "ပါဠိ": 5677,
      "မြမြ": 5678,
      "မြေ့": 5679,
      "မြုန့်": 5680,
      "ရှံ": 5681,
      "ရှုံ": 5682,
      "ရှန့်": 5683,
      "ကိုက": 5684,
      "ကိုရင်": 5685,
      "ကိုသာ": 5686,
      "နှိမ့်": 5687,
      "နေသား": 5688,
      "နေလား": 5689,
      "နေပြန်": 5690,
      "နေမှု": 5691,
      "နေကောင်း": 5692,
      "နေခန်း": 5693,
      "နေပါပြီ": 5694,
      "နေပြန်သည်": 5695,
      "နေခဲ့တာ": 5696,
      "တာနီ": 5697,
      "တာထက်": 5698,
      "တာရှည်": 5699,
      "တယ်နော်": 5700,
      "ခြောင်း": 5701,
      "ခြစား": 5702,
      "ခြွင်း": 5703,
      "ရာကျ": 5704,
      "ရာပါ": 5705,
      "ရာပုံ": 5706,
      "ရာစု": 5707,
      "ရာဟု": 5708,
      "လက်က": 5709,
      "လက်ဆ": 5710,
      "လက်တစ်": 5711,
      "လက်လုပ်": 5712,
      "လက်ကား": 5713,
      "လက်ဦး": 5714,
      "လက်ယာ": 5715,
      "လက်ရဲ": 5716,
      "လက်အုပ်": 5717,
      "လက်ထုတ်": 5718,
      "လက်အောက်": 5719,
      "လက်ထောက်": 5720,
      "လက်လွတ်": 5721,
      "လက်တွဲ": 5722,
      "လက်စောင့်": 5723,
      "လက်ဆိပ်": 5724,
      "လက်လွှဲ": 5725,
      "လက်ဆုံ": 5726,
      "လက်စွပ်": 5727,
      "လက်ယှက်": 5728,
      "လက်ဆုပ်": 5729,
      "လက်ငုတ်": 5730,
      "လက်ချား": 5731,
      "လက်ပွေ့": 5732,
      "လက်ညှိုး": 5733,
      "လက်ဖျစ်": 5734,
      "တစ်တစ်": 5735,
      "တစ်ပုံ": 5736,
      "တစ်ရက်": 5737,
      "တစ်ရွက်": 5738,
      "တစ်ခေါက်": 5739,
      "တစ်စောင်": 5740,
      "တစ်ဆစ်": 5741,
      "တစ်ခွင်": 5742,
      "တစ်ပြက်": 5743,
      "တစ်သိုက်": 5744,
      "လှန်း": 5745,
      "လှောင်း": 5746,
      "လှေ့": 5747,
      "လှလိုက်တာ": 5748,
      "လှလိုင်": 5749,
      "စာစာ": 5750,
      "စာနာ": 5751,
      "စာခံ": 5752,
      "စာတိုက်": 5753,
      "စာစီ": 5754,
      "စာမျက်နှာ": 5755,
      "စာတည်း": 5756,
      "စာမူ": 5757,
      "စာရွက်": 5758,
      "စာကျွေး": 5759,
      "ပျပျ": 5760,
      "ကြီးက": 5761,
      "ကြီးသား": 5762,
      "ကြီးနိုင်": 5763,
      "ကြီးငယ်": 5764,
      "ရေခ": 5765,
      "ရေသ": 5766,
      "ရေလိုက်": 5767,
      "ရေလဲ": 5768,
      "ရေပေါ်": 5769,
      "ရေကုန်": 5770,
      "ရေသီ": 5771,
      "ရေစင်": 5772,
      "ရေကြောင်း": 5773,
      "ရေချိုး": 5774,
      "ရေဆင်း": 5775,
      "ရေယာဉ်": 5776,
      "ရေမျော": 5777,
      "ရေညှိ": 5778,
      "ရေသွန်": 5779,
      "သူရင်း": 5780,
      "သူကြွယ်": 5781,
      "လုပ်စာ": 5782,
      "စားနေ": 5783,
      "စားပေး": 5784,
      "စားသုံး": 5785,
      "စားဝတ်": 5786,
      "စားဖို": 5787,
      "စားကျက်": 5788,
      "စားမလဲ": 5789,
      "တော့မှာ": 5790,
      "တော့တာပဲ": 5791,
      "သည်မ": 5792,
      "သားရ": 5793,
      "သားစား": 5794,
      "သားပဲ": 5795,
      "သားချင်း": 5796,
      "သားသမီး": 5797,
      "မှာမှ": 5798,
      "မှာပင်": 5799,
      "မှာပေါ့": 5800,
      "ဖြစ်သော": 5801,
      "ဖြစ်ရပ်": 5802,
      "ဖြစ်ပါစေ": 5803,
      "ဖြစ်ခဲ့တယ်": 5804,
      "အတီ": 5805,
      "အတင့်": 5806,
      "အတွယ်": 5807,
      "အတုံ့": 5808,
      "နာနာ": 5809,
      "နာရေး": 5810,
      "နာယက": 5811,
      "ဆိုသော်": 5812,
      "လျော": 5813,
      "လျဉ်": 5814,
      "လျဉ်း": 5815,
      "ပေးစာ": 5816,
      "ပေးခဲ့": 5817,
      "ပေးအပ်": 5818,
      "ပေးချေ": 5819,
      "ပေးဆပ်": 5820,
      "ပြီးဆေး": 5821,
      "လာခံ": 5822,
      "လာရင်": 5823,
      "လာခဲ့တယ်": 5824,
      "လူစ": 5825,
      "လူအ": 5826,
      "လူကို": 5827,
      "လူရာ": 5828,
      "လူသူ": 5829,
      "လူဖြစ်": 5830,
      "လူရေး": 5831,
      "လူဝင်": 5832,
      "လူကောင်း": 5833,
      "လူနည်း": 5834,
      "လူတောင်": 5835,
      "လူငယ်": 5836,
      "လူစု": 5837,
      "လူထွက်": 5838,
      "လူဆိုး": 5839,
      "လူဝတ်": 5840,
      "လူစိမ်း": 5841,
      "လူညွန့်": 5842,
      "လူမှန်း": 5843,
      "လူတန်းစား": 5844,
      "လေးစား": 5845,
      "လေးတင်": 5846,
      "လေးခွ": 5847,
      "လေးပင်": 5848,
      "လေးခင်း": 5849,
      "ခံသာ": 5850,
      "ခံတက်": 5851,
      "ခံယူ": 5852,
      "နဲ့တင်": 5853,
      "မိတ": 5854,
      "မိခင်": 5855,
      "မိမယ်": 5856,
      "မိတ္တူ": 5857,
      "မိလ္လာ": 5858,
      "ရင်ကန်": 5859,
      "ရင်ခုန်": 5860,
      "ရင်ဘတ်": 5861,
      "လိုက်ပို့": 5862,
      "လိုက်မိတယ်": 5863,
      "လိုက်ဦး": 5864,
      "ရှိလှသည်": 5865,
      "လေသ": 5866,
      "လေလား": 5867,
      "လေတံ": 5868,
      "လေပြေ": 5869,
      "လေမှုတ်": 5870,
      "လေလွင့်": 5871,
      "အသက": 5872,
      "အသရေ": 5873,
      "အသင်္": 5874,
      "ရေးသမား": 5875,
      "တော်တယ်": 5876,
      "တော်အောင်": 5877,
      "တော်ငယ်": 5878,
      "ရွမ်း": 5879,
      "သာပါတယ်": 5880,
      "သာဒ်": 5881,
      "သာမက": 5882,
      "သာဝက": 5883,
      "လိုပဲ": 5884,
      "လိုလဲ": 5885,
      "ဘူးတောင်း": 5886,
      "မာရ": 5887,
      "မာသ": 5888,
      "မာလာ": 5889,
      "မာတင်": 5890,
      "မီးကျ": 5891,
      "မီးနေ": 5892,
      "မီးစာ": 5893,
      "မီးသွေး": 5894,
      "မီးခဲ": 5895,
      "မီးဖို": 5896,
      "မီးကျည်": 5897,
      "မီးထွန်း": 5898,
      "တင်ပြ": 5899,
      "တင်ကား": 5900,
      "တင်ပါး": 5901,
      "တင်ပို့": 5902,
      "တို့ဟာ": 5903,
      "တို့နှင့်": 5904,
      "ထားရမယ်": 5905,
      "ထားကြတဲ့": 5906,
      "ပဲတဲ့": 5907,
      "ပဲတီ": 5908,
      "ပဲခူး": 5909,
      "မျက်တောင်": 5910,
      "မျက်ရိပ်": 5911,
      "မျက်စဉ်း": 5912,
      "မျက်ခုံး": 5913,
      "မျက်မှောင်": 5914,
      "ပေါက်ပန်း": 5915,
      "ခင်ဌား": 5916,
      "အေးမြတ်": 5917,
      "နိုင်မ": 5918,
      "နိုင်ရင်": 5919,
      "နိုင်ခဲ့": 5920,
      "နိုင်ပါဘူး": 5921,
      "နိုင်ခဲ့ဘူး": 5922,
      "ကားနဲ့": 5923,
      "သွားပြီး": 5924,
      "သွားပြော": 5925,
      "သွားရောက်": 5926,
      "သွားတာနဲ့": 5927,
      "သိနိုင်": 5928,
      "သိပွ": 5929,
      "သိဒ္ဓိ": 5930,
      "မယ်တော်": 5931,
      "စိတ်နေ": 5932,
      "စိတ်မှာ": 5933,
      "စိတ်ရှိ": 5934,
      "စိတ်အေး": 5935,
      "စိတ်တူ": 5936,
      "စိတ်တို": 5937,
      "စိတ်ညစ်": 5938,
      "စိတ်မကောင်း": 5939,
      "အရည": 5940,
      "အရဟ": 5941,
      "အရိုက်": 5942,
      "အရသာ": 5943,
      "ပန်းတ": 5944,
      "ပန်းပဲ": 5945,
      "ပန်းသီး": 5946,
      "ပန်းစုံ": 5947,
      "ပန်းတောင်း": 5948,
      "ပန်းနွယ်": 5949,
      "ကာမူ": 5950,
      "ကာသီကာ": 5951,
      "တိကာ": 5952,
      "တိယောင်": 5953,
      "သံတွေ": 5954,
      "သံတို": 5955,
      "သံဖြတ်": 5956,
      "သံဖြူ": 5957,
      "သံယော": 5958,
      "သံမဏိ": 5959,
      "သံပရာ": 5960,
      "ဦးလုံး": 5961,
      "ဦးတင်": 5962,
      "ဦးပေါင်း": 5963,
      "ဦးသျှောင်": 5964,
      "ဘာဂ": 5965,
      "ဘာပြော": 5966,
      "ဘာအတွက်": 5967,
      "ဘာဂျာ": 5968,
      "ဘာလုပ်နေလဲ": 5969,
      "ကိုယ်တွေ့": 5970,
      "အစစ": 5971,
      "အစို": 5972,
      "အစက်": 5973,
      "အစောင်း": 5974,
      "အစွန်": 5975,
      "အစပျိုး": 5976,
      "နားနား": 5977,
      "နားဝင်": 5978,
      "နားတောင်း": 5979,
      "နားရွက်": 5980,
      "နားယောင်": 5981,
      "နားသန်": 5982,
      "နားပန်": 5983,
      "လို့တောင်": 5984,
      "င်္လာ": 5985,
      "ပါးပါး": 5986,
      "အကြာ": 5987,
      "အကြေ": 5988,
      "အကြို": 5989,
      "အကြွေ": 5990,
      "အကြိမ်": 5991,
      "အကြွင်း": 5992,
      "အချီ": 5993,
      "အချည်း": 5994,
      "အားကျ": 5995,
      "အားကြီး": 5996,
      "အားတက်": 5997,
      "အားငယ်": 5998,
      "အားစိုက်": 5999,
      "အားသွန်": 6000,
      "ခွံ့": 6001,
      "ခုခံ": 6002,
      "ခုလု": 6003,
      "ဝင်ပြီး": 6004,
      "ဝင်သက်": 6005,
      "ဝင်ငွေ": 6006,
      "ဖျပ်": 6007,
      "ဖျိုး": 6008,
      "ဖျော့": 6009,
      "တိုက်စား": 6010,
      "တိုက်ဆိုင်": 6011,
      "ပြန့်": 6012,
      "ပြန်ပေး": 6013,
      "ပြန်ဘူး": 6014,
      "ပြန်မပြော": 6015,
      "နောက်ကို": 6016,
      "နောက်ဖြစ်": 6017,
      "နောက်နေ့": 6018,
      "နောက်ပိုး": 6019,
      "နောက်တစ်ခု": 6020,
      "နောက်ထပ်": 6021,
      "ဆေးဆေး": 6022,
      "ဆေးဝါး": 6023,
      "ဆေးလိပ်": 6024,
      "ဆေးရုံ": 6025,
      "ပြောသလို": 6026,
      "ခြေမ": 6027,
      "ခြေကုန်": 6028,
      "ခြေသည်း": 6029,
      "ခြေစောင့်": 6030,
      "မှုဖြင့်": 6031,
      "ဒီပါ": 6032,
      "ဒီယံ": 6033,
      "ဒီမို": 6034,
      "ဒီဇယ်": 6035,
      "န္တေ": 6036,
      "များကို": 6037,
      "များတယ်": 6038,
      "ပုံဆွဲ": 6039,
      "ပုံပြင်": 6040,
      "ပုံဖော်": 6041,
      "မင်းရဲ့": 6042,
      "မင်းမဲ့": 6043,
      "သေမင်း": 6044,
      "သေချင်": 6045,
      "သေလု": 6046,
      "ထိုးထိုး": 6047,
      "ထိုးကွင်း": 6048,
      "တက်မ": 6049,
      "တက်ရည်": 6050,
      "တက်ကြွ": 6051,
      "ပင်ကို": 6052,
      "ပင်ပေါက်": 6053,
      "ပင်တည်း": 6054,
      "ကောင်းတယ်": 6055,
      "ကောင်းစား": 6056,
      "ကောင်းချီး": 6057,
      "ရည်တူ": 6058,
      "ရည်ကြည်": 6059,
      "တရက်": 6060,
      "ဝါကျ": 6061,
      "ဝါဖတ်": 6062,
      "ဝါဏိ": 6063,
      "သက်နေ": 6064,
      "သက်ကြီး": 6065,
      "သက်ငယ်": 6066,
      "သက်ရောက်": 6067,
      "သက်တမ်း": 6068,
      "သက်မဲ့": 6069,
      "သမယ": 6070,
      "သမက်": 6071,
      "သမဂ္ဂ": 6072,
      "သမဝါယမ": 6073,
      "ဒါ့": 6074,
      "ဒါလီ": 6075,
      "ဒါကတော့": 6076,
      "ဇာနည်": 6077,
      "ပွဲကြီး": 6078,
      "အာဂ": 6079,
      "အာလေး": 6080,
      "အာစေး": 6081,
      "အာဂုံ": 6082,
      "အာဝဇ္ဇ": 6083,
      "အိမ်သာ": 6084,
      "အိမ်ကောင်း": 6085,
      "အိမ်နီး": 6086,
      "ခဲ့မိတယ်": 6087,
      "တံထိုး": 6088,
      "တံတောင်": 6089,
      "တံကဲ": 6090,
      "အမော်": 6091,
      "အမုန်း": 6092,
      "အမွန်": 6093,
      "အမွမ်း": 6094,
      "ခေါင်းပါး": 6095,
      "ခေါင်းချင်း": 6096,
      "ခေါင်းစီး": 6097,
      "ခေါင်းတုံး": 6098,
      "ခေါင်းကွဲ": 6099,
      "ခေါင်းအုံး": 6100,
      "ခေါင်းလျှော်": 6101,
      "ဗျို့": 6102,
      "နည်းနဲ့": 6103,
      "နည်းများ": 6104,
      "နည်းလမ်း": 6105,
      "နည်းစနစ်": 6106,
      "တောင်ပြန်": 6107,
      "တောင်စဉ်": 6108,
      "တောင်ပို့": 6109,
      "အဆွယ်": 6110,
      "အထူ": 6111,
      "အထစ်": 6112,
      "အထီး": 6113,
      "အထုံ": 6114,
      "အထုပ်": 6115,
      "အထိုက်": 6116,
      "အထွေး": 6117,
      "အထွက်": 6118,
      "အထွတ်": 6119,
      "အထိန်း": 6120,
      "အကမ်း": 6121,
      "အကန့်": 6122,
      "အကွယ်": 6123,
      "အကွေ့": 6124,
      "အကွာ": 6125,
      "ငါးကြီး": 6126,
      "ငါးမြင်း": 6127,
      "ငါးရှဉ့်": 6128,
      "ငါးမျှား": 6129,
      "မိုးမ": 6130,
      "မိုးကြီး": 6131,
      "မိုးကာ": 6132,
      "မိုးသောက်": 6133,
      "မိုးမျှော်": 6134,
      "မိုးနှောင်း": 6135,
      "ငွေစ": 6136,
      "ငွေရင်း": 6137,
      "ငွေကုန်": 6138,
      "ငွေစု": 6139,
      "အောင်လုပ်": 6140,
      "အောင်မယ်": 6141,
      "အောင်ခြင်း": 6142,
      "တိုင်ဖ": 6143,
      "တိုင်ပင်": 6144,
      "လမ်းဖြောင့်": 6145,
      "နေ့တွက်": 6146,
      "ပုတတ်": 6147,
      "ပုရစ်": 6148,
      "ပုခက်": 6149,
      "ပုဆစ်": 6150,
      "ပုသိမ်": 6151,
      "ပုလ္": 6152,
      "မြေဆီ": 6153,
      "မြေစိုက်": 6154,
      "မြေနု": 6155,
      "မြေကြော": 6156,
      "မြေနင်း": 6157,
      "စစ်ပွဲ": 6158,
      "စစ်တပ်": 6159,
      "စစ်ဆင်": 6160,
      "စစ်ကူ": 6161,
      "စစ်ဌာနချုပ်": 6162,
      "စစ်အုပ်ချုပ်ရေး": 6163,
      "မျိုးစုံ": 6164,
      "မျိုးစေ့": 6165,
      "ရိုးကို": 6166,
      "ရိုးသား": 6167,
      "ချင်ရင်": 6168,
      "ချင်လို့": 6169,
      "စ္စည်း": 6170,
      "နှစ်ပါး": 6171,
      "နှစ်ခွ": 6172,
      "နှစ်ဖက်": 6173,
      "နှစ်ချုပ်": 6174,
      "နှစ်တုံး": 6175,
      "ညာဏ": 6176,
      "ပတ်မ": 6177,
      "ပတ်စာ": 6178,
      "ပြုဗ္ဗ": 6179,
      "ရင်းဆန်ခတ်": 6180,
      "ငယ်သား": 6181,
      "ငယ်များ": 6182,
      "ငယ်ရွယ်": 6183,
      "အခွေ": 6184,
      "ရှင်ကို": 6185,
      "ရှင်လောင်း": 6186,
      "ကြိုးပြတ်": 6187,
      "ကြိုးပမ်း": 6188,
      "ဘယ်နှ": 6189,
      "ဘယ်ရီ": 6190,
      "ဘယ်အချိန်": 6191,
      "ဘယ်အခါ": 6192,
      "ဘယ်သူက": 6193,
      "စပ်တူ": 6194,
      "စပ်စု": 6195,
      "ယာယ်": 6196,
      "ယာရီ": 6197,
      "ယာယီ": 6198,
      "သွေးတိုး": 6199,
      "သွေးပေါင်": 6200,
      "သွေးကြော": 6201,
      "ချိုမာ": 6202,
      "ချိုသွေး": 6203,
      "ကုန်စည်": 6204,
      "ကုန်စျေး": 6205,
      "ရောမ": 6206,
      "ရောရု": 6207,
      "စက်စက်": 6208,
      "စက်ကွင်း": 6209,
      "စက်ဝိုင်း": 6210,
      "သောတ": 6211,
      "သောပါး": 6212,
      "သောအခါ": 6213,
      "ယောက်ဖ": 6214,
      "တန်းတင်": 6215,
      "တန်းတူ": 6216,
      "တန်းရှည်": 6217,
      "တန်းလျား": 6218,
      "ပေါင်းသင်": 6219,
      "ပေါင်းစုံ": 6220,
      "ပေါင်းချောင်": 6221,
      "သင်ပေါင်း": 6222,
      "သင်ပုတ်": 6223,
      "နှာရည်": 6224,
      "ပေလုပ်": 6225,
      "ကြားပေါက်": 6226,
      "ဆုံးမ": 6227,
      "လောက်ကျ": 6228,
      "လောက်ဘူး": 6229,
      "လောက်ထိ": 6230,
      "သစ်သီး": 6231,
      "သစ်ကိုင်း": 6232,
      "ရက်မ": 6233,
      "ရက်များ": 6234,
      "ရက်ရက်": 6235,
      "ရက်ပိုင်း": 6236,
      "ရက်ရာဇာ": 6237,
      "အလူး": 6238,
      "အုပ်ကြီး": 6239,
      "အုပ်စီး": 6240,
      "အုပ်ဖား": 6241,
      "ညီညွတ်": 6242,
      "ညီလာခံ": 6243,
      "အပြာ": 6244,
      "အပြဲ": 6245,
      "အပြောက်": 6246,
      "အပြိုင်း": 6247,
      "မှတ်သား": 6248,
      "မှတ်မိ": 6249,
      "မှတ်ထား": 6250,
      "မှတ်တိုင်": 6251,
      "စေတယ်": 6252,
      "ဖက်ထုပ်": 6253,
      "ရုပ်ပုံ": 6254,
      "မျှဝေ": 6255,
      "ငြိမ့်": 6256,
      "ငြိုငြ": 6257,
      "ပိုးထိုး": 6258,
      "ပိုးကောင်": 6259,
      "ဆွဲဆောင်": 6260,
      "ဆွဲငင်": 6261,
      "ကပ်စေး": 6262,
      "ဓာတု": 6263,
      "မုချ": 6264,
      "မုတိ": 6265,
      "မုတ္တ": 6266,
      "အိုးတိုး": 6267,
      "အိုးခွဲ": 6268,
      "အိုးစည်": 6269,
      "စီးစီး": 6270,
      "စီးကြောင်း": 6271,
      "စည်းချက်": 6272,
      "စည်းရိုး": 6273,
      "ထောင်ထောင်": 6274,
      "ထောင်စု": 6275,
      "တည်ထောင်": 6276,
      "တည်ငြိမ်": 6277,
      "တင်းနစ်": 6278,
      "တင်းကုပ်": 6279,
      "တပ်အပ်": 6280,
      "သတ်သတ်": 6281,
      "စွံ": 6282,
      "ကောက်သင်း": 6283,
      "တန်ပြီ": 6284,
      "တန်ဆောင်": 6285,
      "နီတာ": 6286,
      "နီလာ": 6287,
      "နီပါး": 6288,
      "စုပေါင်း": 6289,
      "စုစည်း": 6290,
      "စုဗူး": 6291,
      "ရောက်မှ": 6292,
      "ရောက်နေ": 6293,
      "ဝါးလုံး": 6294,
      "မှန်အိမ်": 6295,
      "မှန်မှန်": 6296,
      "ဖို့လဲ": 6297,
      "ဆီဘူး": 6298,
      "ဆီမီး": 6299,
      "ဆက်လက်": 6300,
      "ဆက်တိုက်": 6301,
      "ဆက်သွယ်ရေး": 6302,
      "ကြည့်ကြည့်": 6303,
      "ထွက်သက်": 6304,
      "ထွက်နေတယ်": 6305,
      "ထွက်ခွာ": 6306,
      "ထွက်လာတဲ့": 6307,
      "ထွက်ခွါ": 6308,
      "မည်မည်": 6309,
      "ကြောင်မ": 6310,
      "ကြောင်ကြောင်": 6311,
      "သေးသိမ်": 6312,
      "ဂျင်း": 6313,
      "ဂျိန်": 6314,
      "ဂျိန်း": 6315,
      "ဆင့်": 6316,
      "ဆင်ယင်": 6317,
      "ဆင်နှာမောင်း": 6318,
      "ဆိုးဆိုး": 6319,
      "သုံးယောက်": 6320,
      "သုံးစွဲ": 6321,
      "တရားရ": 6322,
      "တရားခံ": 6323,
      "တရားဝင်": 6324,
      "တရားမျှတ": 6325,
      "ကန်ကန်": 6326,
      "စီစဉ်": 6327,
      "အကျိ": 6328,
      "အကျိတ်": 6329,
      "အကျွေး": 6330,
      "အကျွမ်း": 6331,
      "ခါးတောင်း": 6332,
      "လင်ပန်း": 6333,
      "လင်ငယ်": 6334,
      "လင်ကောင်": 6335,
      "မြင့်": 6336,
      "မြင်ကွင်း": 6337,
      "အတွက်တည်း": 6338,
      "မျက်နှာပြင်": 6339,
      "အချိန်မီ": 6340,
      "ဆံတောက်": 6341,
      "ဆံကျင်": 6342,
      "ဆံထုံး": 6343,
      "ဆံခြည်": 6344,
      "ဆိုင်ကယ်": 6345,
      "ရိုက်ကွင်း": 6346,
      "ဝန်တင်": 6347,
      "ဝန်တို": 6348,
      "ဝတ်စုံ": 6349,
      "ဝတ်လုံ": 6350,
      "ပိုင်းဇုန်": 6351,
      "ကြောင်းလမ်း": 6352,
      "ပေါ့ဆ": 6353,
      "ကုလ": 6354,
      "ကုဋေ": 6355,
      "မွေးတိုင်း": 6356,
      "မွေးညင်း": 6357,
      "ရန်သူ": 6358,
      "ရန်ကင်း": 6359,
      "သင်္ချေ": 6360,
      "သင်္ဃာ": 6361,
      "သင်္ဂဟ": 6362,
      "အလုပ်သမား": 6363,
      "ပျက်သွားတယ်": 6364,
      "ဝမ်းကျောင်း": 6365,
      "ဝမ်းနုတ်": 6366,
      "ထုတ်ကုန်": 6367,
      "ထုတ်ထားတဲ့": 6368,
      "ကြာတော့": 6369,
      "ကြာဆံ": 6370,
      "ကြာမြင့်": 6371,
      "ကြည်နူး": 6372,
      "နတ်သံ": 6373,
      "နစ်နာ": 6374,
      "ကြက်မ": 6375,
      "ကြက်ဥ": 6376,
      "ကြက်ခြေ": 6377,
      "ကြက်သီး": 6378,
      "ကြက်ပေါင်": 6379,
      "ကြက်ဆူ": 6380,
      "တောသား": 6381,
      "တောလိုက်": 6382,
      "ပြည်ပ": 6383,
      "ပြည်ထောင်စု": 6384,
      "ရွှေကျင်": 6385,
      "ရွှေပိန်း": 6386,
      "ကင်းရှင်း": 6387,
      "ကင်းလွတ်": 6388,
      "လိပ်ခေါင်း": 6389,
      "လိပ်ကျောက်": 6390,
      "ဇာတ်လိုက်": 6391,
      "ဇာတ်ကြောင်း": 6392,
      "ဇာတ်ကွက်": 6393,
      "ဇာတ်ခုံ": 6394,
      "ဇာတ်ညွှန်း": 6395,
      "ခဲယမ်း": 6396,
      "ခန်းမ": 6397,
      "ရပ်ကွက်": 6398,
      "ပြင်သစ်": 6399,
      "တစ်ခုစီ": 6400,
      "ဓာတ်ပုံ": 6401,
      "ဓာတ်ပြု": 6402,
      "လင်းနို့": 6403,
      "လင်းမြွေ": 6404,
      "ဈေးချို": 6405,
      "ဈေးတန်း": 6406,
      "ဈေးရောင်း": 6407,
      "ပိတ်ရက်": 6408,
      "အောက်ကျ": 6409,
      "အောက်မှာ": 6410,
      "အောက်ပြန်": 6411,
      "ခြောက်လုံး": 6412,
      "ခရိုင်": 6413,
      "မဟုတ်ပါ": 6414,
      "မဟုတ်ဘဲ": 6415,
      "မဟုတ်ဘူးလား": 6416,
      "အဖု": 6417,
      "အဖောက်": 6418,
      "တွပ်": 6419,
      "ထင်ယောင်": 6420,
      "အနင်း": 6421,
      "အနုတ်": 6422,
      "အနွယ်": 6423,
      "အနိမ့်": 6424,
      "ဝေဒ": 6425,
      "ဝေဿ": 6426,
      "ဂါတ်": 6427,
      "တမ်းတ": 6428,
      "ပညာသင်": 6429,
      "အကြောင်းရင်း": 6430,
      "ခွဲခြမ်း": 6431,
      "ထက်ပင်": 6432,
      "ထက်ဝက်": 6433,
      "ထက်ကြပ်": 6434,
      "ထပ်ကာ": 6435,
      "ထပ်တူ": 6436,
      "ထပ်ကိန်း": 6437,
      "ရှေ့ထိုး": 6438,
      "ရှေ့ဆက်": 6439,
      "ရှေ့ပြေး": 6440,
      "ဖြတ်စား": 6441,
      "ဖြတ်ပိုး": 6442,
      "ဖြတ်ပိုင်း": 6443,
      "ဖြတ်သန်း": 6444,
      "ကွမ်": 6445,
      "ကွန့်": 6446,
      "ကွဲလွဲ": 6447,
      "ကွင်းကွင်း": 6448,
      "တွင်းနက်": 6449,
      "ကွက်ကွက်": 6450,
      "ကွက်ကျား": 6451,
      "တောင်းပန်": 6452,
      "ပေါင်မုန့်": 6453,
      "တောက်တဲ့": 6454,
      "တောက်တောက်": 6455,
      "ချာလိုက်": 6456,
      "မောင်းမ": 6457,
      "အူပေါက်": 6458,
      "ထောက်မ": 6459,
      "ဘက်ထရီ": 6460,
      "ဖတ်သီ": 6461,
      "ဖတ်လတ်": 6462,
      "ဆိုတာမျိုး": 6463,
      "စံပယ်": 6464,
      "နယ်စပ်": 6465,
      "နယ်ပယ်": 6466,
      "ပိုင့်": 6467,
      "ပိုမို": 6468,
      "ဝိပ": 6469,
      "ဝိသ": 6470,
      "ဝိညာဉ်": 6471,
      "ဝိညာဏ": 6472,
      "ခေါ်သည်": 6473,
      "ဖူးဖူး": 6474,
      "ပြာရောင်": 6475,
      "ပြာဋိ": 6476,
      "ပြာသို": 6477,
      "ဖြူခါ": 6478,
      "ဖြူရော်": 6479,
      "မြှူ": 6480,
      "ခေါက်ကြည့်": 6481,
      "ခေါက်တုံ့": 6482,
      "နိယ": 6483,
      "နိဿ": 6484,
      "နိပါတ်": 6485,
      "နိကာယ်": 6486,
      "ခုံလောက်": 6487,
      "ခုံရုံး": 6488,
      "နဲနဲ": 6489,
      "နှုတ်တိုက်": 6490,
      "ဆရာကြီး": 6491,
      "ဆရာတော်": 6492,
      "ထိရောက်": 6493,
      "မေးတယ်": 6494,
      "မေးတော့": 6495,
      "ကြမ်းပိုး": 6496,
      "ရှင်းတမ်း": 6497,
      "လွတ်ငြိမ်း": 6498,
      "ကမ်းရိုး": 6499,
      "ခွေးတိုး": 6500,
      "ခွေးရူး": 6501,
      "ပြေးတမ်း": 6502,
      "ပြေးလွှား": 6503,
      "မြင်းခင်း": 6504,
      "ခွင့်မလွှတ်": 6505,
      "ငှက်ကြီး": 6506,
      "ငှက်တော်": 6507,
      "ယောင်ပြ": 6508,
      "ယောင်တိယောင်": 6509,
      "လူးတား": 6510,
      "သဘောမျိုး": 6511,
      "သဘောတူ": 6512,
      "ပြောင်းပြန်": 6513,
      "အတွင်းရေးမှူး": 6514,
      "ကျွန်တော်ရဲ့": 6515,
      "င်္ဂနွေ": 6516,
      "ပိဏ္ဍ": 6517,
      "ကျိုးကျွန်": 6518,
      "ဖန်ရည်": 6519,
      "ဖော်ဆောင်": 6520,
      "မရယ်": 6521,
      "ဟင်းချို": 6522,
      "ဟင်းခါး": 6523,
      "ဟင်းလင်း": 6524,
      "မှားယွင်း": 6525,
      "သူမဆို": 6526,
      "ခေတ်စား": 6527,
      "ခေတ်သစ်": 6528,
      "စွဲချက်": 6529,
      "ဉာဏ": 6530,
      "မွှန်း": 6531,
      "ခိုင်နှုန်း": 6532,
      "နုနယ်": 6533,
      "ရစ်ပတ်": 6534,
      "ရစ်ဝဲ": 6535,
      "အော်တို": 6536,
      "အော်ကျယ်": 6537,
      "အော်ဟစ်": 6538,
      "အရေးအသား": 6539,
      "ကံကျွေး": 6540,
      "တုရင်": 6541,
      "ပြတ်သား": 6542,
      "ပြတ်တောက်": 6543,
      "လွယ်ပါတယ်": 6544,
      "လွယ်ကူ": 6545,
      "အခုတော့": 6546,
      "အခုတလော": 6547,
      "ပြည့်ဝ": 6548,
      "ချဉ်ဖတ်": 6549,
      "ကျေးလက်": 6550,
      "ကျေးမြီး": 6551,
      "ကတ်ကတ်": 6552,
      "သုည": 6553,
      "သုတေ": 6554,
      "သုဒ္ဓ": 6555,
      "သင်းသင်း": 6556,
      "ကျင်ငယ်": 6557,
      "အသုံးအနှုန်း": 6558,
      "စရာကြီး": 6559,
      "ချည်ခင်": 6560,
      "ချည်မျှင်": 6561,
      "နေတာလဲ": 6562,
      "နွားမ": 6563,
      "နွားသိုး": 6564,
      "ပို့ဆောင်": 6565,
      "အိပ်တန်း": 6566,
      "ဥပဒ်": 6567,
      "ကြောတင်း": 6568,
      "ကြောရှည်": 6569,
      "ရှည်လများ": 6570,
      "လောကဓာတ်": 6571,
      "ကော်ဖတ်": 6572,
      "ခိုလှုံ": 6573,
      "စမ်းပါ": 6574,
      "စမ်းသပ်": 6575,
      "ဆင်းပြီး": 6576,
      "ချောင်းဆိုး": 6577,
      "ချောင်းငင်": 6578,
      "ခရီးသွား": 6579,
      "ထမင်းလုံး": 6580,
      "မြက်မြက်": 6581,
      "တစ်ယောက်က": 6582,
      "တစ်ယောက်တစ်": 6583,
      "ဘာဝနာ": 6584,
      "သမ္မုတိ": 6585,
      "ရှားရှား": 6586,
      "လွှတ်ချ": 6587,
      "ထုချေ": 6588,
      "ခေါင်မိုး": 6589,
      "ခေါင်ခေါင်": 6590,
      "ခက်ထန်": 6591,
      "မဲမဲ": 6592,
      "မဲဆန္ဒ": 6593,
      "ဖြေဆို": 6594,
      "ဖြေဖို့": 6595,
      "နေရာတွေ": 6596,
      "ဉာဏ်သစ်": 6597,
      "ဆီးသီး": 6598,
      "ထည်ဝါ": 6599,
      "သန်လျက်": 6600,
      "သန်လျင်း": 6601,
      "အိုင့်": 6602,
      "အိုမင်း": 6603,
      "အိုဗာ": 6604,
      "လိုက်ပါတော့": 6605,
      "ဗြာ": 6606,
      "ဟန်ကြီး": 6607,
      "ဟန်ဆောင်": 6608,
      "ဟန်လွှဲ": 6609,
      "ပြောင်မြောက်": 6610,
      "ချောစု": 6611,
      "ရွယ်တူ": 6612,
      "ပက်ကျိ": 6613,
      "အုန်းသီး": 6614,
      "အုန်းဆံ": 6615,
      "အုန်းနို့": 6616,
      "အုန်းမှုတ်": 6617,
      "ပျိုံး": 6618,
      "စည်ဖောင်း": 6619,
      "တေဇော": 6620,
      "ပီတိ": 6621,
      "ပီယံ": 6622,
      "ရွာသား": 6623,
      "ရွာတန်းရှည်": 6624,
      "နိုင်ငံတကာ": 6625,
      "ထီးရိုး": 6626,
      "သဘာဝတရား": 6627,
      "အိတ်ဝင်": 6628,
      "အလှော်": 6629,
      "အလှိုင်း": 6630,
      "ကြောင့်ကြ": 6631,
      "ချေးခါ": 6632,
      "ထုံးစံ": 6633,
      "ရယ်စရာ": 6634,
      "အရပ်က": 6635,
      "အရပ်မှာ": 6636,
      "ဖွင့်လှစ်": 6637,
      "ကဲကဲ": 6638,
      "မတည့်": 6639,
      "ရွေးကောက်": 6640,
      "အမှန်း": 6641,
      "အမှည့်": 6642,
      "အမှောင့်": 6643,
      "အုတ်အာ": 6644,
      "အဖွဲ့အစည်း": 6645,
      "ကျင်းပ": 6646,
      "လွန်းတဲ့": 6647,
      "လွန်းလှပေသည်": 6648,
      "ဆိပ်ကမ်း": 6649,
      "ထန်းတစ်": 6650,
      "ထန်းရည်": 6651,
      "နီးနီး": 6652,
      "မယားငယ်": 6653,
      "ကိန္န": 6654,
      "ဂြိုလ်": 6655,
      "ထူထပ်": 6656,
      "မတ်မှု": 6657,
      "မန်းရည်": 6658,
      "အရှိုက်": 6659,
      "ကိုက်ညီ": 6660,
      "ဆိုင်းဘုတ်": 6661,
      "ရမ်းရမ်း": 6662,
      "သတင်းစာ": 6663,
      "ပြုံးစိစိ": 6664,
      "ဖျက်ဆီး": 6665,
      "ခွန်အား": 6666,
      "ညွှတ်": 6667,
      "ရုတ်တရက်": 6668,
      "လတ်တလော": 6669,
      "ပြင်းကတ်": 6670,
      "စာရင်းသွင်း": 6671,
      "စာရင်းအင်း": 6672,
      "လျှာလေး": 6673,
      "လျှာစက်": 6674,
      "လျှာသွက်": 6675,
      "ကြည့်ကြတယ်": 6676,
      "ဆုံလည်": 6677,
      "ဆင့်ပွား": 6678,
      "ဆင့်ကဲ": 6679,
      "ဆွမ်းခံ": 6680,
      "ဗိုလ်ချုပ်": 6681,
      "ဗိုလ်မှူး": 6682,
      "သောင်းကျန်း": 6683,
      "ဟောပြော": 6684,
      "ရှေးဖြစ်": 6685,
      "ကုလားမ": 6686,
      "ကုလားအုတ်": 6687,
      "ssion": 6688,
      "စပါးကျီ": 6689,
      "ရမယ့်": 6690,
      "လုပွဲ": 6691,
      "သော်မှ": 6692,
      "အငမ်း": 6693,
      "အငိုက်": 6694,
      "အငံ့": 6695,
      "အပူအပင်": 6696,
      "ကျည်ကျည်": 6697,
      "ကိုင်းကျွန်း": 6698,
      "ပျစ်ပျစ်": 6699,
      "အကြံပြု": 6700,
      "ထွေထွေ": 6701,
      "ဒဏ်ရာ": 6702,
      "ဓမ္မသတ်": 6703,
      "ဓမ္မဓိဋ္ဌာန်": 6704,
      "မောင်ရင်": 6705,
      "မောင်မောင်": 6706,
      "မောင်နှံ": 6707,
      "သတိပေး": 6708,
      "အန်စာ": 6709,
      "အန်တု": 6710,
      "အနှီး": 6711,
      "အနှောင့်": 6712,
      "အနှံ့": 6713,
      "အနာဂတ်": 6714,
      "ချွေးတ": 6715,
      "လွှာချင်း": 6716,
      "ဗေဒင်": 6717,
      "မိုက်တယ်": 6718,
      "ဟောင်းလောင်း": 6719,
      "ချောင်ကျ": 6720,
      "ကျက်ကျက်": 6721,
      "ကျွမ်းထိုး": 6722,
      "ဒူးရင်း": 6723,
      "အမှုဆောင်": 6724,
      "အမှုထမ်း": 6725,
      "ဘာသာတရား": 6726,
      "ငွေ့ငွေ့": 6727,
      "မြန်မာစာ": 6728,
      "ငိုချင်း": 6729,
      "ဆုတ်ခွာ": 6730,
      "ရမှာပါ": 6731,
      "ရှုပ်ထွေး": 6732,
      "တကယ်တမ်း": 6733,
      "ပဲ့တင်": 6734,
      "လွင်ပြင်": 6735,
      "မာန်မာန": 6736,
      "မုန်တိုင်း": 6737,
      "မုန်ညင်း": 6738,
      "ရသတဲ့": 6739,
      "ရသေ့": 6740,
      "ရောင်းဝယ်": 6741,
      "ရင့်မာ": 6742,
      "ရှူးထိုး": 6743,
      "ရှူးရှူး": 6744,
      "လျင်မြန်": 6745,
      "သျှတ္တရ": 6746,
      "စွမ်းရည်": 6747,
      "စွမ်းအင်": 6748,
      "ဘိလပ်": 6749,
      "ဘိသိက်": 6750,
      "နှီးနှော": 6751,
      "အဆင်မပြေ": 6752,
      "ဘယ်လိုမှ": 6753,
      "ဂ္ဃ": 6754,
      "စနစ်တကျ": 6755,
      "တွန်းလှည်း": 6756,
      "ပရိဘောဂ": 6757,
      "ပရိယာယ်": 6758,
      "ဘော်ဒါ": 6759,
      "ကျူးလွန်": 6760,
      "လျှပ်တစ်ပြက်": 6761,
      "ဆပ်သွား": 6762,
      "သစ္စာပြု": 6763,
      "နာမည်ကြီး": 6764,
      "နားလည်မှု": 6765,
      "ငေါ်": 6766,
      "နောင်တ": 6767,
      "ဖင်ခံ": 6768,
      "ဖောင်းကြွ": 6769,
      "မူးယစ်": 6770,
      "သွက်ချာ": 6771,
      "သွက်သွက်": 6772,
      "ကြေကွဲ": 6773,
      "ချယ်ရီ": 6774,
      "အကြမ်းခံ": 6775,
      "အချက်အလက်": 6776,
      "ဖျဉ်းဖျဉ်း": 6777,
      "ညှိနှိုင်း": 6778,
      "ဆော်ဒါ": 6779,
      "တချို့က": 6780,
      "ထာဝရ": 6781,
      "ပင့်သက်": 6782,
      "ဖိတ်နေ့": 6783,
      "ရှောင်ရှား": 6784,
      "အသေအချာ": 6785,
      "အရိုးပေါ်": 6786,
      "ဒီလိုပါပဲ": 6787,
      "တံခါးကို": 6788,
      "ဝှမ်း": 6789,
      "တစ်လုံးတစ်": 6790,
      "အမြင်ကတ်": 6791,
      "ခဏခဏ": 6792,
      "ခဏတဖြုတ်": 6793,
      "စကေး": 6794,
      "ဒိုင်ယာရီ": 6795,
      "ရုန်းရုန်း": 6796,
      "ရုန်းသုန်း": 6797,
      "ရုန်းရင်းဆန်ခတ်": 6798,
      "လုပ်ငန်းခွင်": 6799,
      "ကာလသား": 6800,
      "ဇီဇာ": 6801,
      "ဇက်ကုန်": 6802,
      "ဝံပုလွေ": 6803,
      "သိုလှောင်": 6804,
      "အင်္ဂတေ": 6805,
      "ကြိမ်မြောက်": 6806,
      "နှမ်းဖတ်": 6807,
      "အသိပေး": 6808,
      "အသိအမှတ်": 6809,
      "မည်သည့်နေရာ": 6810,
      "ence": 6811,
      "စိမ်ရေ": 6812,
      "တုံ့ပြန်": 6813,
      "အငြိုး": 6814,
      "တစ်ဦးစီ": 6815,
      "ယိုးမှား": 6816,
      "သွတ်သွင်း": 6817,
      "အရေတင်": 6818,
      "ခုနစ်စဉ်": 6819,
      "အမဲလိုက်": 6820,
      "တွတ်တွတ်": 6821,
      "ထောင်းထောင်း": 6822,
      "နော့်": 6823,
      "ပူးပေါင်း": 6824,
      "ပူးတွဲ": 6825,
      "အလေးထား": 6826,
      "ကျိကျိ": 6827,
      "ရှစ်သောင်း": 6828,
      "တစ်ခါတလေ": 6829,
      "ကူညီပါ": 6830,
      "စွတ်စွတ်": 6831,
      "ဖြန်းဖြန်း": 6832,
      "အပြည့်အဝ": 6833,
      "အပြည့်အစုံ": 6834,
      "ကွပ်ကဲ": 6835,
      "ကန့်လန့်ကာ": 6836,
      "အက္ခရာတင်": 6837,
      "ဆွယ်တာ": 6838,
      "ထီပေါက်": 6839,
      "သုန်သုန်": 6840,
      "ဟီလီ": 6841,
      "အခံ့": 6842,
      "အနည်းဆုံး": 6843,
      "အခြားသော": 6844,
      "ချန်လှပ်": 6845,
      "ကာယကံ": 6846,
      "အဆင့်မြင့်": 6847,
      "အကုန်လုံး": 6848,
      "စစ်ဆေးရေး": 6849,
      "ခရုစုတ်": 6850,
      "ဆန့်ကျင်": 6851,
      "တြာ": 6852,
      "တြင်း": 6853,
      "ထိုက်တန်": 6854,
      "ထိုက်သင့်": 6855,
      "မွန်းတည့်": 6856,
      "ယီးတီး": 6857,
      "ယိုင်တိုင်": 6858,
      "သရေစာ": 6859,
      "အပေါက်အစ": 6860,
      "လက်နက်ချ": 6861,
      "အတော်လေး": 6862,
      "န္ဓော": 6863,
      "အဆက်အသွယ်": 6864,
      "အမြှောင်": 6865,
      "အမြှုပ်": 6866,
      "ဒွါ": 6867,
      "ပံ့ပိုး": 6868,
      "ဗိုင်းတောင့်": 6869,
      "ဟက်ပက်": 6870,
      "အလျဉ်": 6871,
      "အလျဉ်း": 6872,
      "တစ်နေ့က": 6873,
      "အစီရင်ခံ": 6874,
      "ခလုတ်တိုက်": 6875,
      "ဖုန်ဖုန်": 6876,
      "မွေ့ရာ": 6877,
      "အနောက်တောင်": 6878,
      "ဖြဲဖြဲ": 6879,
      "အရောင်တင်": 6880,
      "အားနည်းချက်": 6881,
      "စိမ့်စိမ့်": 6882,
      "ရာဇဝတ်မှု": 6883,
      "ငတ်မွတ်": 6884,
      "ဟူသော": 6885,
      "အသွေးအသား": 6886,
      "ရွပ်ရွပ်": 6887,
      "န္တရကပ်": 6888,
      "လွှမ်းမိုး": 6889,
      "အနီးကပ်": 6890,
      "အရေးကြီးတဲ့": 6891,
      "ဘုရင်မ": 6892,
      "ဝိုင်ယာ": 6893,
      "အပြန်အလှန်": 6894,
      "အတောင်ပံ": 6895,
      "မာနကြီး": 6896,
      "အမွှား": 6897,
      "ရက်ကန်းကြိုး": 6898,
      "ဝမ်းသာလိုက်တာ": 6899,
      "ကျန်းမာရေး": 6900,
      "လက်ခုပ်လက်ဝါး": 6901,
      "ကနဦး": 6902,
      "တနင်္လာ": 6903,
      "တနင်္ဂနွေ": 6904,
      "ဟုန်းဟုန်း": 6905,
      "အတားအဆီး": 6906,
      "ဆိုလျှင်ပင်": 6907,
      "လူမှုရေး": 6908,
      "ကာရက": 6909,
      "လျှမ်းတောက်": 6910,
      "လျှမ်းလျှမ်းတောက်": 6911,
      "ပြောပြလိုက်": 6912,
      "ဒေဝဒတ်": 6913,
      "ပိဋက": 6914,
      "ဒိဋ္ဌိ": 6915,
      "ကလာပ်": 6916,
      "စနိုက်": 6917,
      "စန္ဒာ": 6918,
      "ဆောရီး": 6919,
      "ဏှာ": 6920,
      "တွားသွား": 6921,
      "ယဉ်းနာ": 6922,
      "အပါအဝင်": 6923,
      "အစိတ်အပိုင်း": 6924,
      "အပန်းပြေ": 6925,
      "ကြန့်ကြာ": 6926,
      "ပြိုးပြိုး": 6927,
      "ကျော့ကွင်း": 6928,
      "နေထိုင်သူ": 6929,
      "နားပင်းပိတ်": 6930,
      "ပုဂ္ဂလ": 6931,
      "သောကြာဂြိုဟ်": 6932,
      "ဆုံးဖြတ်တယ်": 6933,
      "မဟုတ်လားဗျ": 6934,
      "လေ့ကျင့်ခန်း": 6935,
      "ဂေါက်သီး": 6936,
      "ကထိန်": 6937,
      "ကတ္တား": 6938,
      "ဂုန်နီ": 6939,
      "သပွတ်အူ": 6940,
      "ချွံချွံ": 6941,
      "ခြိမ်းခြောက်": 6942,
      "ပျမ်းမျှ": 6943,
      "သူပုန်ထ": 6944,
      "လေတော့သည်": 6945,
      "အထဲမှာ": 6946,
      "အကောင်အထည်": 6947,
      "စကားစမြည်": 6948,
      "အဖေ့ကို": 6949,
      "ကံကောင်းထောက်မ": 6950,
      "သမ္ပတ္တိ": 6951,
      "ညွှန်ကြားရေးမှူး": 6952,
      "ဒွိဟ": 6953,
      "ကာကွယ်ရေးဦးစီးချုပ်": 6954,
      "here": 6955,
      "ကရိုဏ်း": 6956,
      "ဂရမ်": 6957,
      "ဇေယျ": 6958,
      "ဗဟုသုတ": 6959,
      "လဟာပြင်": 6960,
      "လပြည့်နေ့": 6961,
      "သက္ကာယ": 6962,
      "အန္တော": 6963,
      "ဩဘာပေး": 6964,
      "စာကြည့်တိုက်": 6965,
      "ရင်ဂျီနာ": 6966,
      "အခိုက်အတန့်": 6967,
      "အလွဲလွဲ": 6968,
      "ဝိသေသန": 6969,
      "အငေါ့": 6970,
      "ယဉ်စွန်းတန်း": 6971,
      "မည်သည့်နည်းနှင့်": 6972,
      "ကက္ကု": 6973,
      "ကံ့ကူ": 6974,
      "မတိုးရန်": 6975,
      "မဆိုင်ဘူး": 6976,
      "မနုဿ": 6977,
      "ယမန်နေ့": 6978,
      "ဟင်္သာ": 6979,
      "အပေးအယူ": 6980,
      "ဥသဘ": 6981,
      "ဥက္ကာ": 6982,
      "လူလုံးလူ": 6983,
      "ရှိရာသို့": 6984,
      "ဦးဆံပိုင်": 6985,
      "အားလပ်ချိန်": 6986,
      "ပုရပိုက်": 6987,
      "အနိစ္စ": 6988,
      "ဖားပေါင်စင်း": 6989,
      "ဗြဟ္မ": 6990,
      "ယဉ်ကျေးမှု": 6991,
      "ဘူတာရုံ": 6992,
      "မျှော်လင့်ချက်": 6993,
      "အတ္ထုပ္ပတ္တိ": 6994,
      "ကဆုန်": 6995,
      "ကလေက": 6996,
      "ကရိကထ": 6997,
      "ကသိုဏ်း": 6998,
      "ကတ္တီပါ": 6999,
      "ဂလီဆန်": 7000,
      "စတော်ဘယ်ရီ": 7001,
      "စင်္ကြံ": 7002,
      "တန္တု": 7003,
      "တမေ့တ": 7004,
      "ထရွန်": 7005,
      "ဒဏ္ဍာရီ": 7006,
      "ဒက္ခိဏ": 7007,
      "ပခြုပ်": 7008,
      "ပယောဂ": 7009,
      "ဗထက်ခြိုက်": 7010,
      "ယထာဘူ": 7011,
      "အခွင့်အရေး": 7012,
      "ကြငှန်း": 7013,
      "ပါမောက္ခ": 7014,
      "စားဝတ်နေရေး": 7015,
      "လူနည်းစု": 7016,
      "လိုက်ဦးမယ်": 7017,
      "သိပွံ": 7018,
      "ဒီမိုကရေစီ": 7019,
      "ဝါဏိဇ္ဇ": 7020,
      "အာဝဇ္ဇန်း": 7021,
      "ပုလ္လိင်": 7022,
      "ကုန်စျေးနှုန်း": 7023,
      "ငြိုငြင်": 7024,
      "ခါးတောင်းကျိုက်": 7025,
      "ကွက်ကွက်ကွင်းကွင်း": 7026,
      "ပြာဋိဟာ": 7027,
      "ရုန်းသုန်းကား": 7028,
      "#,": 7029,
      "(;": 7030,
      "14": 7031,
      "15": 7032,
      "1000": 7033,
      "50": 7034,
      "70": 7035,
      "700": 7036,
      "AI": 7037,
      "AT": 7038,
      "Ar": 7039,
      "Assembly": 7040,
      "ACP": 7041,
      "AWS": 7042,
      "Bri": 7043,
      "Basic": 7044,
      "CD": 7045,
      "Ci": 7046,
      "Cer": 7047,
      "Cust": 7048,
      "Dec": 7049,
      "Date": 7050,
      "Dip": 7051,
      "Ex": 7052,
      "Edit": 7053,
      "Frame": 7054,
      "Framework": 7055,
      "GB": 7056,
      "Gen": 7057,
      "Game": 7058,
      "Gift": 7059,
      "Garbage": 7060,
      "Hand": 7061,
      "Happ": 7062,
      "IG": 7063,
      "Ide": 7064,
      "Iter": 7065,
      "IAT": 7066,
      "Jo": 7067,
      "Jan": 7068,
      "Just": 7069,
      "Ki": 7070,
      "Kn": 7071,
      "Keyword": 7072,
      "KCD": 7073,
      "LF": 7074,
      "Lo": 7075,
      "Less": 7076,
      "Ma": 7077,
      "Mar": 7078,
      "Math": 7079,
      "Men": 7080,
      "Mac": 7081,
      "Machine": 7082,
      "Mul": 7083,
      "Mount": 7084,
      "Method": 7085,
      "MIG": 7086,
      "MKCD": 7087,
      "No": 7088,
      "Non": 7089,
      "New": 7090,
      "OK": 7091,
      "Ope": 7092,
      "Oper": 7093,
      "Off": 7094,
      "Object": 7095,
      "Pe": 7096,
      "Pol": 7097,
      "Re": 7098,
      "Ro": 7099,
      "Ru": 7100,
      "Run": 7101,
      "Reg": 7102,
      "Right": 7103,
      "SS": 7104,
      "Sc": 7105,
      "Sh": 7106,
      "So": 7107,
      "Ser": 7108,
      "Set": 7109,
      "Stu": 7110,
      "Snipping": 7111,
      "Te": 7112,
      "Type": 7113,
      "Test": 7114,
      "UI": 7115,
      "Us": 7116,
      "VC": 7117,
      "Ven": 7118,
      "We": 7119,
      "Wo": 7120,
      "Xa": 7121,
      "ap": 7122,
      "au": 7123,
      "ain": 7124,
      "ative": 7125,
      "ating": 7126,
      "by": 7127,
      "ber": 7128,
      "bra": 7129,
      "bin": 7130,
      "bol": 7131,
      "basic": 7132,
      "ct": 7133,
      "car": 7134,
      "ces": 7135,
      "cur": 7136,
      "clo": 7137,
      "csharp": 7138,
      "cap": 7139,
      "ds": 7140,
      "dro": 7141,
      "eol": 7142,
      "ell": 7143,
      "eign": 7144,
      "fen": 7145,
      "fess": 7146,
      "flow": 7147,
      "ful": 7148,
      "full": 7149,
      "ger": 7150,
      "gni": 7151,
      "game": 7152,
      "garbage": 7153,
      "hn": 7154,
      "his": 7155,
      "hell": 7156,
      "imp": 7157,
      "ian": 7158,
      "ized": 7159,
      "kro": 7160,
      "lt": 7161,
      "lor": 7162,
      "let": 7163,
      "les": 7164,
      "lect": 7165,
      "mon": 7166,
      "mat": 7167,
      "mount": 7168,
      "method": 7169,
      "nd": 7170,
      "ner": 7171,
      "non": 7172,
      "neg": 7173,
      "ntifi": 7174,
      "of": 7175,
      "om": 7176,
      "ov": 7177,
      "oper": 7178,
      "off": 7179,
      "object": 7180,
      "pt": 7181,
      "py": 7182,
      "pec": 7183,
      "pad": 7184,
      "pment": 7185,
      "phis": 7186,
      "ry": 7187,
      "ring": 7188,
      "rtu": 7189,
      "rite": 7190,
      "sy": 7191,
      "son": 7192,
      "system": 7193,
      "same": 7194,
      "site": 7195,
      "snipping": 7196,
      "spec": 7197,
      "tag": 7198,
      "tec": 7199,
      "tex": 7200,
      "tture": 7201,
      "test": 7202,
      "ud": 7203,
      "um": 7204,
      "ux": 7205,
      "ula": 7206,
      "ution": 7207,
      "use": 7208,
      "uary": 7209,
      "uting": 7210,
      "vb": 7211,
      "vil": 7212,
      "vari": 7213,
      "volu": 7214,
      "variable": 7215,
      "war": 7216,
      "write": 7217,
      "ymor": 7218,
      "yeol": 7219,
      "ကသ": 7220,
      "က‌": 7221,
      "ကစ်": 7222,
      "ကကြီး": 7223,
      "ကလျ": 7224,
      "ကတော်": 7225,
      "ကသာ": 7226,
      "ကလုံး": 7227,
      "ကလဲ": 7228,
      "ကတိုက်": 7229,
      "ကပြန်": 7230,
      "ကလည်": 7231,
      "ကပြု": 7232,
      "ကကြိုး": 7233,
      "ကရော": 7234,
      "ကလောက်": 7235,
      "ကဆန်": 7236,
      "ကစီ": 7237,
      "ကရိုက်": 7238,
      "ကလီ": 7239,
      "ကလယ်": 7240,
      "ကဇာတ်": 7241,
      "ကတတ်": 7242,
      "ကတမ်း": 7243,
      "ကထက်": 7244,
      "ကပိုင်": 7245,
      "ကဝိ": 7246,
      "ကနန်း": 7247,
      "ကယောင်": 7248,
      "ကပြောင်း": 7249,
      "ကဒ်": 7250,
      "ကနု": 7251,
      "ကရွတ်": 7252,
      "ကခုန်": 7253,
      "ကသောင်း": 7254,
      "ကမှန်း": 7255,
      "ကမျဉ်း": 7256,
      "ကကျစ်": 7257,
      "ကက္က": 7258,
      "ကတူး": 7259,
      "ကချော်": 7260,
      "ကမျော": 7261,
      "ကနုတ်": 7262,
      "ကဏ္ဏ": 7263,
      "ကပျာ": 7264,
      "ကတွတ်": 7265,
      "ကဘတ်": 7266,
      "ကကျတော့": 7267,
      "ကတ္တရ": 7268,
      "ကနွဲ့": 7269,
      "ကဗျည်း": 7270,
      "ကဗွ": 7271,
      "ကစ္စည်း": 7272,
      "ခစ်": 7273,
      "ခင့်": 7274,
      "ခစား": 7275,
      "ခမာ": 7276,
      "ခနောက်": 7277,
      "ခရင်း": 7278,
      "ခတ္တာ": 7279,
      "ခမန်း": 7280,
      "ခမက်": 7281,
      "ဂဓ": 7282,
      "ဂန": 7283,
      "ဂွ": 7284,
      "ဂင်": 7285,
      "ဂုံး": 7286,
      "ဂိုင်": 7287,
      "ဂုတ်": 7288,
      "ဂွတ်": 7289,
      "ဂငယ်": 7290,
      "ဂနီ": 7291,
      "ဂရီ": 7292,
      "ဂရိ": 7293,
      "ဂရပ်": 7294,
      "ဂဝံ": 7295,
      "ဂန္ဓာ": 7296,
      "ဂင်္ဂါ": 7297,
      "ဂတဝင်": 7298,
      "ဂရင်ဂျီနာ": 7299,
      "ဃော": 7300,
      "ငိ": 7301,
      "ငူ": 7302,
      "ငင်း": 7303,
      "ငပ်": 7304,
      "ငွား": 7305,
      "ငကြောင်": 7306,
      "ငလူး": 7307,
      "ငပုပ်": 7308,
      "ငိုင်တွေ": 7309,
      "စပ": 7310,
      "စမ": 7311,
      "စရ": 7312,
      "စကြ": 7313,
      "စယ်": 7314,
      "စွေး": 7315,
      "စတဲ့": 7316,
      "စပြီး": 7317,
      "စလာ": 7318,
      "စနဲ့": 7319,
      "စလုံး": 7320,
      "စလို": 7321,
      "စကာ": 7322,
      "စလောက်": 7323,
      "စမှတ်": 7324,
      "စထောင်": 7325,
      "စတိုး": 7326,
      "စနက်": 7327,
      "စလီ": 7328,
      "စလယ်": 7329,
      "စတီ": 7330,
      "စမူ": 7331,
      "စကိုင်": 7332,
      "စတမ်း": 7333,
      "စရစ်": 7334,
      "စချည်": 7335,
      "စမ္မ": 7336,
      "စတုတ်": 7337,
      "စတေ": 7338,
      "စကုပ်": 7339,
      "စစ္စ": 7340,
      "စပယ်": 7341,
      "စကော": 7342,
      "စမော": 7343,
      "စသည့်": 7344,
      "စတား": 7345,
      "စနိုး": 7346,
      "စမုန်": 7347,
      "စတေး": 7348,
      "စလာတာ": 7349,
      "စရည်း": 7350,
      "စင်္ကာ": 7351,
      "စရိယ": 7352,
      "စမစ်": 7353,
      "စပြောလိုက်တယ်": 7354,
      "စလုပ်တော့": 7355,
      "စလက်တစ်": 7356,
      "ဆန": 7357,
      "ဆလာ": 7358,
      "ဆုန်း": 7359,
      "ဆလိုက်": 7360,
      "ဆတိုး": 7361,
      "ဆရိ": 7362,
      "ဆခွဲ": 7363,
      "ဆွန့်": 7364,
      "ဇစ်": 7365,
      "ဇိုး": 7366,
      "ဇိုင်း": 7367,
      "ဇဝေ": 7368,
      "ဇဝက်": 7369,
      "ဇလပ်": 7370,
      "ဇဥ်": 7371,
      "ညတာ": 7372,
      "ညကြီး": 7373,
      "ညပိုင်း": 7374,
      "ညတွင်း": 7375,
      "ဋာ": 7376,
      "ဌီ": 7377,
      "ဌဌာန်": 7378,
      "ဎိ": 7379,
      "ဏေ": 7380,
      "တဩ": 7381,
      "တ‌": 7382,
      "တမ်": 7383,
      "တလာ": 7384,
      "တိပ်": 7385,
      "တခင်": 7386,
      "တကောင်း": 7387,
      "တချက်": 7388,
      "တစိ": 7389,
      "တလည်း": 7390,
      "တမျိုး": 7391,
      "တလောက်": 7392,
      "တကူး": 7393,
      "တကွဲ": 7394,
      "တသင့်": 7395,
      "တစိုက်": 7396,
      "တခေါက်": 7397,
      "တပို့": 7398,
      "တလောက": 7399,
      "တလွဲ": 7400,
      "တသိန်း": 7401,
      "တကော": 7402,
      "တဆင့်": 7403,
      "တအုံ": 7404,
      "တနိုး": 7405,
      "တလျင်": 7406,
      "တအံ့": 7407,
      "တလုတ်": 7408,
      "တကျည်း": 7409,
      "တညင်း": 7410,
      "တမုတ်": 7411,
      "တလွှား": 7412,
      "တထေ": 7413,
      "တပြွတ်": 7414,
      "တဖြည်းဖြည်း": 7415,
      "တဝါးဝါး": 7416,
      "တဒါန": 7417,
      "တပြိ": 7418,
      "တစာစာ": 7419,
      "တဆင့်": 7420,
      "တငွေ့ငွေ့": 7421,
      "တဏှာ": 7422,
      "ထ္": 7423,
      "ထင့်": 7424,
      "ထတက်": 7425,
      "ထသတ်": 7426,
      "ထရိုက်": 7427,
      "ထရယ်": 7428,
      "ထချုပ်ပြီး": 7429,
      "ဒံ": 7430,
      "ဒဿ": 7431,
      "ဒင်": 7432,
      "ဒေး": 7433,
      "ဒ့်": 7434,
      "ဒမ်": 7435,
      "ဒိတ်": 7436,
      "ဒသမ": 7437,
      "ဒိန်း": 7438,
      "ဒရော": 7439,
      "ဒယိုင်": 7440,
      "ဒကစ": 7441,
      "ဒဟတ်": 7442,
      "ဓက": 7443,
      "ဓရ": 7444,
      "ဓိမ": 7445,
      "ဓွန့်": 7446,
      "ဓိုရ်": 7447,
      "နယ": 7448,
      "နူ": 7449,
      "နမ်": 7450,
      "နိုက်": 7451,
      "နုံး": 7452,
      "နိမ်": 7453,
      "နိပ်": 7454,
      "နဘူး": 7455,
      "နငယ်": 7456,
      "နုံ့": 7457,
      "နန္ဒ": 7458,
      "နမူး": 7459,
      "နိမ္": 7460,
      "နရည်း": 7461,
      "နတ္ထိ": 7462,
      "နဘေ": 7463,
      "ပပ": 7464,
      "ပသ": 7465,
      "ပီး": 7466,
      "ပလက်": 7467,
      "ပလုပ်": 7468,
      "ပနာ": 7469,
      "ပလိုက်": 7470,
      "ပကား": 7471,
      "ပသိ": 7472,
      "ပလဲ": 7473,
      "ပလင်း": 7474,
      "ပတတ်": 7475,
      "ပတောက်": 7476,
      "ပဒု": 7477,
      "ပလူး": 7478,
      "ပရစ်": 7479,
      "ပလောင်": 7480,
      "ပဟို": 7481,
      "ပတဲ": 7482,
      "ပဆုပ်": 7483,
      "ပယင်း": 7484,
      "ပဓာန": 7485,
      "ဖလာ": 7486,
      "ဖမျက်": 7487,
      "ဖိမ့်": 7488,
      "ဖရီး": 7489,
      "ဖလှယ်": 7490,
      "ဖမဆုံးမ": 7491,
      "ဗင်": 7492,
      "ဗို": 7493,
      "ဗက်": 7494,
      "ဗင်း": 7495,
      "ဗစ်": 7496,
      "ဗောင်": 7497,
      "ဗွန်": 7498,
      "ဗလီ": 7499,
      "ဗလောင်": 7500,
      "ဗလိ": 7501,
      "ဗဝန်း": 7502,
      "ဗလစ်": 7503,
      "ဗန္ဓ": 7504,
      "ဘရာ": 7505,
      "ဘသား": 7506,
      "ဘေ့": 7507,
      "ဘွတ်": 7508,
      "ဘယာ": 7509,
      "ဘလောက်": 7510,
      "ဘယ့်": 7511,
      "ဘပိုင်": 7512,
      "ဘင်္ဂ": 7513,
      "ဘရာဇ": 7514,
      "ဘရိတ်": 7515,
      "ဘယက်": 7516,
      "ဘလိုင်း": 7517,
      "ဘဒြ": 7518,
      "မဝ": 7519,
      "မသ": 7520,
      "မပြ": 7521,
      "မတဲ့": 7522,
      "မည့်": 7523,
      "မပေး": 7524,
      "မမာ": 7525,
      "မတိ": 7526,
      "မမှု": 7527,
      "မပြု": 7528,
      "မချို": 7529,
      "မတည်": 7530,
      "မသတ်": 7531,
      "မဆက်": 7532,
      "မထွက်": 7533,
      "မဂျ": 7534,
      "မကြည်": 7535,
      "မနစ်": 7536,
      "မခန်း": 7537,
      "မရပ်": 7538,
      "မကူး": 7539,
      "မဖြတ်": 7540,
      "မတ္တ": 7541,
      "မခိုး": 7542,
      "မထွေး": 7543,
      "မခေါ်": 7544,
      "မခေါက်": 7545,
      "မလုံ": 7546,
      "မထုပ်": 7547,
      "မလှည့်": 7548,
      "မချစ်": 7549,
      "မပါဘူး": 7550,
      "မဆိတ်": 7551,
      "မပို့": 7552,
      "မမီ": 7553,
      "မဆင်း": 7554,
      "မသန်": 7555,
      "မပီ": 7556,
      "မကျေ": 7557,
      "မထည့်": 7558,
      "မနီး": 7559,
      "မကွာ": 7560,
      "မဆိုင်း": 7561,
      "မပြုံး": 7562,
      "မရှု": 7563,
      "မဆင့်": 7564,
      "မဝယ်": 7565,
      "မစို့": 7566,
      "မချွတ်": 7567,
      "မဆိုက်": 7568,
      "မသေချာ": 7569,
      "မဂ္ဂ": 7570,
      "မကွေး": 7571,
      "မကျန်": 7572,
      "မအီ": 7573,
      "မနှိုင်း": 7574,
      "မလုံခြုံ": 7575,
      "မဖြုန်း": 7576,
      "မသုန်": 7577,
      "မတိမ်း": 7578,
      "မရှင်းပြ": 7579,
      "မနှောင်း": 7580,
      "မစ္ဆ": 7581,
      "မနူး": 7582,
      "မယိမ်း": 7583,
      "မဟူ": 7584,
      "မဓု": 7585,
      "မခွဲခြား": 7586,
      "မသင်္ကာ": 7587,
      "မကြိုက်တာ": 7588,
      "မမှီခို": 7589,
      "မဥ္": 7590,
      "ယိ": 7591,
      "ယဲ့": 7592,
      "ယနာ": 7593,
      "ယွန်": 7594,
      "ယခင်": 7595,
      "ယွတ်": 7596,
      "ယကွင်း": 7597,
      "ယမုန်": 7598,
      "ယဉ့်": 7599,
      "ယတြာ": 7600,
      "ရစ": 7601,
      "ရနေ": 7602,
      "ရရာ": 7603,
      "ရသူ": 7604,
      "ရပြီး": 7605,
      "ရမိ": 7606,
      "ရရင်": 7607,
      "ရွင်း": 7608,
      "ရပေါက်": 7609,
      "ရသွား": 7610,
      "ရလဲ": 7611,
      "ရကာ": 7612,
      "ရသော": 7613,
      "ရဆုံး": 7614,
      "ရက္ခ": 7615,
      "ရကန်": 7616,
      "ရဝေ": 7617,
      "ရခြင်း": 7618,
      "ရုဏ်": 7619,
      "ရသင်း": 7620,
      "ရဏာ": 7621,
      "ရထားတဲ့": 7622,
      "ရရသ": 7623,
      "ရလာတဲ့": 7624,
      "ရသူများ": 7625,
      "ရဂုံ": 7626,
      "ရဏီ": 7627,
      "လယ": 7628,
      "လတာ": 7629,
      "လွေး": 7630,
      "လော့": 7631,
      "လတွေ": 7632,
      "လကာ": 7633,
      "လခွ": 7634,
      "လမင်း": 7635,
      "လချုပ်": 7636,
      "လမြင်": 7637,
      "လွေ့": 7638,
      "လစေ့": 7639,
      "လကွယ်": 7640,
      "လခြမ်း": 7641,
      "လဟု": 7642,
      "လိမ္": 7643,
      "ဝယ": 7644,
      "ဝမ်": 7645,
      "ဝုတ်": 7646,
      "ဝလာ": 7647,
      "ဝုန်": 7648,
      "ဝိန်": 7649,
      "ဝတိ": 7650,
      "ဝပြော": 7651,
      "ဝကန်": 7652,
      "ဝစီ": 7653,
      "ဝတည်း": 7654,
      "ဝတုတ်": 7655,
      "ဝစ္စ": 7656,
      "ဝဂ္ဂ": 7657,
      "ဝရီး": 7658,
      "ဝထ္": 7659,
      "သလ": 7660,
      "သဟ": 7661,
      "သ‌": 7662,
      "သလာ": 7663,
      "သတို့": 7664,
      "သရီ": 7665,
      "သကန်": 7666,
      "သရိုက်": 7667,
      "သနံ": 7668,
      "သနစ်": 7669,
      "သဘက်": 7670,
      "သလွန်": 7671,
      "သယောင်း": 7672,
      "သလစ်": 7673,
      "သရာဇာ": 7674,
      "သတ္တရ": 7675,
      "သဏီ": 7676,
      "သဟဲ": 7677,
      "သဖြန်": 7678,
      "ဟင်": 7679,
      "ဟိုင်": 7680,
      "ဟေ့": 7681,
      "ဟိန်း": 7682,
      "ဟကွဲ": 7683,
      "ဟဏီ": 7684,
      "အည": 7685,
      "အယ": 7686,
      "အအ": 7687,
      "အဿ": 7688,
      "အင့်": 7689,
      "အဖြ": 7690,
      "အတစ်": 7691,
      "အသည်": 7692,
      "အုန်": 7693,
      "အရှိ": 7694,
      "အွန်": 7695,
      "အမင်း": 7696,
      "အဟုတ်": 7697,
      "အဝါး": 7698,
      "အကိုင်": 7699,
      "အခြင်း": 7700,
      "အခေါင်": 7701,
      "အငန်း": 7702,
      "အပျံ": 7703,
      "အဗ္": 7704,
      "အပျစ်": 7705,
      "အဓမ္မ": 7706,
      "အပျော့": 7707,
      "အညို": 7708,
      "အလျော်": 7709,
      "အခြင်": 7710,
      "အဏ္ဏ": 7711,
      "အညစ်": 7712,
      "အလျာ": 7713,
      "အညွတ်": 7714,
      "အရွှန်း": 7715,
      "အယွင်း": 7716,
      "အဟာရ": 7717,
      "အဒေါ်": 7718,
      "အဖြီး": 7719,
      "အခြွေ": 7720,
      "အညှာ": 7721,
      "အဖွင့်": 7722,
      "အဂတိ": 7723,
      "အဟုန်": 7724,
      "အဟန့်": 7725,
      "အဓွန့်": 7726,
      "ဣန္ဒ": 7727,
      "ဣဒ္ဓိ": 7728,
      "ဣတ္ထိ": 7729,
      "ဤဤ": 7730,
      "ဤကဲ့သို့": 7731,
      "ဥဒ": 7732,
      "ဥဿ": 7733,
      "ဥပန်း": 7734,
      "ဥဒါ": 7735,
      "ဥပေ": 7736,
      "ဥအိုး": 7737,
      "ဥသေး": 7738,
      "ဥဒ္": 7739,
      "ဥမင်": 7740,
      "ဥဏ္ဏ": 7741,
      "ဥဗျိုင်း": 7742,
      "ဥဏှ": 7743,
      "ဧယင်": 7744,
      "ဧည့်": 7745,
      "ဩဃ": 7746,
      "ဩတ္တ": 7747,
      "ဩရသ": 7748,
      "ဩကာသ": 7749,
      "ဩဂုတ်": 7750,
      "ိန္ဒြေ": 7751,
      "ိရတ်": 7752,
      "ီစိ": 7753,
      "ုပ္": 7754,
      "ူင်": 7755,
      "ေတ္တာ": 7756,
      "ေအလည်": 7757,
      "ဲလေး": 7758,
      "ဲကြရော": 7759,
      "ံနာ": 7760,
      "ံသာ": 7761,
      "့စ်": 7762,
      "့ထဲ": 7763,
      "့ဟိုင်": 7764,
      "္ဂ": 7765,
      "ဿဒါး": 7766,
      "၁၂": 7767,
      "၁၃": 7768,
      "၁၄": 7769,
      "၁၉": 7770,
      "၁၂၀၀": 7771,
      "၂၃": 7772,
      "၂၅": 7773,
      "၃၂": 7774,
      "၄၄": 7775,
      "၄၅": 7776,
      "၄၇": 7777,
      "၅၆": 7778,
      "၅၀၀": 7779,
      "၆၅": 7780,
      "၇၆": 7781,
      "၇၈": 7782,
      "၈၄": 7783,
      "၈၇": 7784,
      "၏။": 7785,
      "‌တွေကို": 7786,
      "င်သွား": 7787,
      "င်ရောက်": 7788,
      "င်နက်": 7789,
      "ိုက့်": 7790,
      "င်းကို": 7791,
      "င်းသား": 7792,
      "င်းနောက်": 7793,
      "င်းရဲ့": 7794,
      "ကြစ်": 7795,
      "ကြတာ": 7796,
      "ကြပြီး": 7797,
      "ကြကုန်": 7798,
      "ကြဟန်": 7799,
      "ကြရသည်": 7800,
      "ကြဘူးလား": 7801,
      "ကြမှာလဲ": 7802,
      "ကြရပါ့မယ်": 7803,
      "ယ်လီ": 7804,
      "ပြက": 7805,
      "ပြယ်": 7806,
      "ပြပါ": 7807,
      "ပြလုပ်": 7808,
      "ပြတိုက်": 7809,
      "ပြက္ခ": 7810,
      "ပြခန်း": 7811,
      "ပြဆရာ": 7812,
      "ပြလိုက်ပါ": 7813,
      "ပြလိမ့်မယ်": 7814,
      "ပြချင်တယ်": 7815,
      "ပြဋ္ဌာန်း": 7816,
      "ပြချင်ပါတယ်": 7817,
      "ပြလိုက်တာပဲ": 7818,
      "ပြဿဒါး": 7819,
      "စ်ကား": 7820,
      "စ်ယောက်": 7821,
      "စ်ဘော": 7822,
      "ချပေး": 7823,
      "ချပြီး": 7824,
      "ချရား": 7825,
      "ချခံရ": 7826,
      "ချဲကြရော": 7827,
      "ီးယား": 7828,
      "ုံလိုက်": 7829,
      "ုံဖုံ": 7830,
      "ကျာ": 7831,
      "ကျုံ": 7832,
      "ကျလိုက်": 7833,
      "ကျသင့်": 7834,
      "ကျနေပြီ": 7835,
      "ကျနော့်": 7836,
      "မှက်": 7837,
      "မှို့": 7838,
      "မှသည်": 7839,
      "မှပဲ": 7840,
      "မှိန်း": 7841,
      "မှတစ်ပါး": 7842,
      "မှတပါး": 7843,
      "ပါတော့": 7844,
      "ပါသား": 7845,
      "ပါလဲ": 7846,
      "ပါအောင်": 7847,
      "ပါစဉ်": 7848,
      "ပါစင်": 7849,
      "ပါပေါ့": 7850,
      "ပါခင်ဗျား": 7851,
      "ပါ့မယ်": 7852,
      "ပါလာပြီး": 7853,
      "ပါတော့တယ်": 7854,
      "မြာ": 7855,
      "မြိုး": 7856,
      "မြော့": 7857,
      "မြတွေ": 7858,
      "မြုံ့": 7859,
      "မြိန့်": 7860,
      "ရှေ": 7861,
      "ရှောင်း": 7862,
      "ရှိတ်": 7863,
      "ကိုကို": 7864,
      "ကိုလို": 7865,
      "ကိုလား": 7866,
      "ကိုလို့": 7867,
      "ကိုခွ": 7868,
      "ကိုဗျ": 7869,
      "ကိုပို့": 7870,
      "ကိုနှိပ်": 7871,
      "ော်အမြင်": 7872,
      "ိုင်တက်": 7873,
      "ိုင်ရယ်": 7874,
      "ဖြား": 7875,
      "ဖြော်": 7876,
      "ဖြုံး": 7877,
      "ဖြိုင်": 7878,
      "ဖြဖြ": 7879,
      "ဖြုံ့": 7880,
      "နှန့်": 7881,
      "နှမျော": 7882,
      "နှိး": 7883,
      "မျာ": 7884,
      "မျစ်": 7885,
      "မျဉ်": 7886,
      "နေမိ": 7887,
      "နေသာ": 7888,
      "နေလဲ": 7889,
      "နေကာ": 7890,
      "နေအောင်": 7891,
      "နေသော": 7892,
      "နေဖို့": 7893,
      "နေထွက်": 7894,
      "နေကြာ": 7895,
      "နေတတ်": 7896,
      "နေချိန်": 7897,
      "နေဆာ": 7898,
      "နေလွဲ": 7899,
      "နေမယ့်": 7900,
      "နေယျ": 7901,
      "နေကြသည်": 7902,
      "နေဘူးလား": 7903,
      "နေမိတယ်": 7904,
      "နေတော့မယ်": 7905,
      "နေတတ်တဲ့": 7906,
      "နေမထိ": 7907,
      "နေရပြီလား": 7908,
      "ပေါလော": 7909,
      "တာ့": 7910,
      "တာစ်": 7911,
      "တာလား": 7912,
      "တာပြော": 7913,
      "တာမျိုး": 7914,
      "တာအိုး": 7915,
      "တာလီ": 7916,
      "တာတို": 7917,
      "တာဂုဏ်": 7918,
      "တာတိတ်": 7919,
      "တာလု": 7920,
      "တာမို့": 7921,
      "တာလေးတွေ": 7922,
      "တာပန": 7923,
      "တာဝတိ": 7924,
      "တယ်လေ": 7925,
      "တယ်လို့": 7926,
      "တယ်ဗျ": 7927,
      "တယ်ပေါ့": 7928,
      "ခြည်း": 7929,
      "ော့ခါး": 7930,
      "ော့လပ်": 7931,
      "တွေပါ": 7932,
      "တွေမှာ": 7933,
      "တွေဆို": 7934,
      "တွေကတော့": 7935,
      "တွေကြောင့်": 7936,
      "တွေမို့": 7937,
      "တွေသည်လည်း": 7938,
      "တွေကျတော့": 7939,
      "တွေဖြစ်တဲ့": 7940,
      "ရာဏ": 7941,
      "ရာရေ": 7942,
      "ရာမှာ": 7943,
      "ရာရှင်": 7944,
      "ရာတန်": 7945,
      "ရာတွင်း": 7946,
      "ရာတွင်": 7947,
      "ရာချီ": 7948,
      "ရာနှုန်း": 7949,
      "ရာခိုင်နှုန်း": 7950,
      "လက်န": 7951,
      "လက်ရ": 7952,
      "လက်ပြ": 7953,
      "လက်ရာ": 7954,
      "လက်သည်": 7955,
      "လက်ပေါက်": 7956,
      "လက်ပန်း": 7957,
      "လက်သံ": 7958,
      "လက်ခွ": 7959,
      "လက်မှု": 7960,
      "လက်သေ": 7961,
      "လက်တက်": 7962,
      "လက်တံ": 7963,
      "လက်ပတ်": 7964,
      "လက်ရင်း": 7965,
      "လက်သုံး": 7966,
      "လက်လီ": 7967,
      "လက်ပျက်": 7968,
      "လက်တို": 7969,
      "လက်ပြင်": 7970,
      "လက်ကူး": 7971,
      "လက်ဖွဲ့": 7972,
      "လက်ထက်": 7973,
      "လက်သင့်": 7974,
      "လက်မဲ့": 7975,
      "လက်သမား": 7976,
      "လက်ကတော့": 7977,
      "လက်စေ့": 7978,
      "လက်လွန်": 7979,
      "လက်စောင်း": 7980,
      "လက်ပြောင်း": 7981,
      "လက်ချိုး": 7982,
      "လက်မြန်": 7983,
      "လက်ပွား": 7984,
      "လက်ဟန်": 7985,
      "လက်ရွေး": 7986,
      "လက်သုတ်": 7987,
      "လက်စွယ်": 7988,
      "လက်လှမ်း": 7989,
      "လက်ဆော့": 7990,
      "လက်တစ်လုံး": 7991,
      "လက်တည့်": 7992,
      "လက်ကျန်": 7993,
      "လက်ပြဲ": 7994,
      "လက်ပမ်း": 7995,
      "လက်ဝှေ့": 7996,
      "လက်ပံ": 7997,
      "လက်တွန်းလှည်း": 7998,
      "လက်ထရွန်": 7999,
      "လက်ငင်း": 8000,
      "တစ်မ": 8001,
      "တစ်တွေ": 8002,
      "တစ်ပန်း": 8003,
      "တစ်တိ": 8004,
      "တစ်အား": 8005,
      "တစ်အိမ်": 8006,
      "တစ်နည်း": 8007,
      "တစ်နှစ်": 8008,
      "တစ်ယာ": 8009,
      "တစ်အိုး": 8010,
      "တစ်ထောင်": 8011,
      "တစ်တန်": 8012,
      "တစ်ဆက်": 8013,
      "တစ်စင်": 8014,
      "တစ်ပစ်": 8015,
      "တစ်ပျက်": 8016,
      "တစ်ဝမ်း": 8017,
      "တစ်ချိန်": 8018,
      "တစ်ဖွဲ့": 8019,
      "တစ်ကျော်": 8020,
      "တစ်ခြား": 8021,
      "တစ်ခွဲ": 8022,
      "တစ်ထိုင်": 8023,
      "တစ်ခေါ်": 8024,
      "တစ်ခွက်": 8025,
      "တစ်ပြေး": 8026,
      "တစ်လျှောက်": 8027,
      "တစ်သိန်း": 8028,
      "တစ်ချို့": 8029,
      "တစ်ဝန်း": 8030,
      "တစ်ပြိုင်": 8031,
      "တစ်ကျွန်း": 8032,
      "တစ်လှမ်း": 8033,
      "တစ်ခွေ": 8034,
      "တစ်စင်း": 8035,
      "တစ်ခြမ်း": 8036,
      "တစ်အောင့်": 8037,
      "တစ်မှိတ်": 8038,
      "တစ်မြုံ": 8039,
      "တစ်ယီ": 8040,
      "တစ်ဟုန်": 8041,
      "တစ်ပင်တိုင်": 8042,
      "တစ်ကမ္ဘာလုံး": 8043,
      "ိုင်းအဝိုင်း": 8044,
      "လှီ": 8045,
      "လှု": 8046,
      "လှသော": 8047,
      "လှဖို့": 8048,
      "လှုံ့": 8049,
      "လှဝင်း": 8050,
      "လှိက်": 8051,
      "စာပါ": 8052,
      "စာဆို": 8053,
      "စာသွား": 8054,
      "စာပြန်": 8055,
      "စာတက်": 8056,
      "စာတိုင်": 8057,
      "စာကြောင်း": 8058,
      "စာပစ်": 8059,
      "စာရိ": 8060,
      "စာနယ်": 8061,
      "စာခုံ": 8062,
      "စာစောင်": 8063,
      "စာအိတ်": 8064,
      "စာချီ": 8065,
      "စာကျက်": 8066,
      "စာပုံနှိပ်": 8067,
      "ကြီးစား": 8068,
      "ကြီးနား": 8069,
      "ကြီးဝင်": 8070,
      "ကြီးရက်": 8071,
      "ကြီးအုပ်": 8072,
      "ကြီးချုပ်": 8073,
      "ကြီးလိုက်တာ": 8074,
      "ကြီးပွား": 8075,
      "ကြီးဆယ်": 8076,
      "ကြီးရောဂါ": 8077,
      "ကြီးမှူး": 8078,
      "ကြီးပါစေ": 8079,
      "ကြီးဟစ်": 8080,
      "ကြီးလေးပါး": 8081,
      "ကြီးပါတယ်ဗျ": 8082,
      "ကြီးကြီးမား": 8083,
      "ကြီးတာဗျ": 8084,
      "ရေထ": 8085,
      "ရေတာ": 8086,
      "ရေတဲ့": 8087,
      "ရေနာ": 8088,
      "ရေပေး": 8089,
      "ရေနိုင်": 8090,
      "ရေလား": 8091,
      "ရေပန်း": 8092,
      "ရေပါး": 8093,
      "ရေအား": 8094,
      "ရေပြန်": 8095,
      "ရေဆေး": 8096,
      "ရေများ": 8097,
      "ရေသေ": 8098,
      "ရေလည်": 8099,
      "ရေမိုး": 8100,
      "ရေချို": 8101,
      "ရေဆန်": 8102,
      "ရေနက်": 8103,
      "ရေကြည်": 8104,
      "ရေခန်း": 8105,
      "ရေကိုင်": 8106,
      "ရေဝေ": 8107,
      "ရေတွင်း": 8108,
      "ရေလုံ": 8109,
      "ရေကြော": 8110,
      "ရေရှည်": 8111,
      "ရေဘေး": 8112,
      "ရေလွှတ်": 8113,
      "ရေပက်": 8114,
      "ရေလွှဲ": 8115,
      "ရေတိမ်": 8116,
      "ရေငွေ့": 8117,
      "ရေလှန်": 8118,
      "ရေခပ်": 8119,
      "ရေစိမ်": 8120,
      "ရေမွှား": 8121,
      "ရေပွက်": 8122,
      "ရေမြှုပ်": 8123,
      "ရေသွန်း": 8124,
      "ရေကျို": 8125,
      "ရေစုန်": 8126,
      "သူကို": 8127,
      "သူတစ်": 8128,
      "သူပြော": 8129,
      "သူတောင်": 8130,
      "သူဟာ": 8131,
      "သူရဲ့": 8132,
      "သူကောင်": 8133,
      "သူတွေကို": 8134,
      "သူသွင်း": 8135,
      "သူဌေး": 8136,
      "သူစိမ်း": 8137,
      "သူယောင်": 8138,
      "သူငါ": 8139,
      "သူရိယ": 8140,
      "သူတကာ": 8141,
      "သူနဲ့ပဲ": 8142,
      "သူရွာသား": 8143,
      "လုပ်ရ": 8144,
      "လုပ်မှ": 8145,
      "လုပ်သူ": 8146,
      "လုပ်ရင်": 8147,
      "လုပ်ထား": 8148,
      "လုပ်ရည်": 8149,
      "လုပ်နည်း": 8150,
      "လုပ်ယူ": 8151,
      "လုပ်ချင်": 8152,
      "လုပ်ဖို့": 8153,
      "လုပ်ခင်း": 8154,
      "လုပ်ဖော်": 8155,
      "လုပ်စရာ": 8156,
      "လုပ်ကြံ": 8157,
      "လုပ်ထားတဲ့": 8158,
      "လုပ်ခိုင်း": 8159,
      "လုပ်နိုင်ပါတယ်": 8160,
      "လုပ်ချင်တာ": 8161,
      "လုပ်ချင်တယ်": 8162,
      "လုပ်ကျွေး": 8163,
      "လုပ်ခဲ့တယ်": 8164,
      "လုပ်ကြသည်": 8165,
      "လုပ်နိုင်တယ်": 8166,
      "လုပ်သွားမှာ": 8167,
      "လုပ်ဖြစ်နေ": 8168,
      "လုပ်ပါတယ်ဗျ": 8169,
      "လုပ်ရတာလဲ": 8170,
      "လုပ်ထားပါတယ်": 8171,
      "လုပ်ကြည့်လို့": 8172,
      "လုပ်လာမဲ့": 8173,
      "လုပ်ကြည့်ပါလား": 8174,
      "လုပ်ကြည့်ပါ့မယ်": 8175,
      "လုပ်သွားပြီး": 8176,
      "လုပ်တယ်လို့": 8177,
      "စားရ": 8178,
      "စားနား": 8179,
      "စားဖက်": 8180,
      "စားဖို့": 8181,
      "စားခွက်": 8182,
      "စားကျင်း": 8183,
      "စားမာန်": 8184,
      "စားမှာလား": 8185,
      "စားကြသူများ": 8186,
      "စားချင်ရင်": 8187,
      "တဲ့အထိ": 8188,
      "တော့လေ": 8189,
      "တော့မှာပါ": 8190,
      "တော့မှာလဲ": 8191,
      "သည်ပင်": 8192,
      "သည်ဟု": 8193,
      "သည်နှယ်": 8194,
      "သားကျ": 8195,
      "သားပါ": 8196,
      "သားလေး": 8197,
      "သားပြော": 8198,
      "သားတက်": 8199,
      "သားငါး": 8200,
      "သားပေ": 8201,
      "သားရဲ": 8202,
      "သားမွေး": 8203,
      "သားခွဲ": 8204,
      "သားထောက်": 8205,
      "သားပျို": 8206,
      "သားကိုက်": 8207,
      "သားဖွား": 8208,
      "သားမြေး": 8209,
      "သားတော်ငယ်": 8210,
      "မှာတဲ့": 8211,
      "မှာဖို့": 8212,
      "မှာမို့": 8213,
      "ဖြစ်ရ": 8214,
      "ဖြစ်ပါ": 8215,
      "ဖြစ်သာ": 8216,
      "ဖြစ်ဘူး": 8217,
      "ဖြစ်သွား": 8218,
      "ဖြစ်မယ်": 8219,
      "ဖြစ်ခဲ့": 8220,
      "ဖြစ်အောင်": 8221,
      "ဖြစ်ရိုး": 8222,
      "ဖြစ်ချင်": 8223,
      "ဖြစ်ကြောင်း": 8224,
      "ဖြစ်လေ့": 8225,
      "ဖြစ်လွန်း": 8226,
      "ဖြစ်သည့်": 8227,
      "ဖြစ်နေတဲ့": 8228,
      "ဖြစ်ဆန်း": 8229,
      "ဖြစ်သည့်": 8230,
      "ဖြစ်ပါပြီ": 8231,
      "ဖြစ်ချင်တယ်": 8232,
      "ဖြစ်လာတာ": 8233,
      "ဖြစ်ရတဲ့": 8234,
      "ဖြစ်သလို": 8235,
      "ဖြစ်နိုင်တယ်": 8236,
      "ဖြစ်ခဲ့သည်": 8237,
      "ဖြစ်တော့ဘူး": 8238,
      "ဖြစ်တာကို": 8239,
      "ဖြစ်မနေ": 8240,
      "ဖြစ်ပါလိမ့်မယ်": 8241,
      "ဖြစ်နေတာလား": 8242,
      "ဖြစ်တာလဲ": 8243,
      "ဖြစ်ခဲ့ပါတယ်": 8244,
      "ဖြစ်ပြီလား": 8245,
      "အတင်": 8246,
      "အတပ်": 8247,
      "အတီး": 8248,
      "အတုတ်": 8249,
      "အတိမ်": 8250,
      "နာလို": 8251,
      "နာလန်": 8252,
      "နာရှိုက်": 8253,
      "နာနေတာပါ": 8254,
      "ဆိုသူ": 8255,
      "ဆိုလို့": 8256,
      "ဆိုချက်": 8257,
      "ဆိုလည်း": 8258,
      "ဆိုရိုး": 8259,
      "ဆိုခွင့်": 8260,
      "ဆိုဒ်": 8261,
      "ဆိုနိုင်သည်": 8262,
      "ဆိုစမ်းပါ": 8263,
      "လျံနာ": 8264,
      "ပေးတယ်": 8265,
      "ပေးနဲ့": 8266,
      "ပေးလိုက်": 8267,
      "ပေးသွား": 8268,
      "ပေးပေါ့": 8269,
      "ပေးသင့်": 8270,
      "ပေးကမ်း": 8271,
      "ပေးလိုက်တာ": 8272,
      "ပေးလိုက်ပါ": 8273,
      "ပေးမယ့်": 8274,
      "ပေးလာတာ": 8275,
      "ပေးနိုင်တယ်": 8276,
      "ပေးနိုင်တဲ့": 8277,
      "ပေးခဲ့ပြီး": 8278,
      "ပေးရမလဲ": 8279,
      "ပေးလိုက်တဲ့": 8280,
      "ပေးရမလား": 8281,
      "ပေးသင့်သည်": 8282,
      "ပေးသွားပါ့မယ်": 8283,
      "ပေးရပြီး": 8284,
      "ပြီးပဲ": 8285,
      "ပြီးနောက်": 8286,
      "ပြီးရော": 8287,
      "ပြီးဖို့": 8288,
      "ပြီးဆိုတော့": 8289,
      "ပြီးတာနဲ့": 8290,
      "ပြီးပြည့်စုံ": 8291,
      "ပြီးကြမှာလဲ": 8292,
      "လာန": 8293,
      "လာတော့": 8294,
      "လာလို့": 8295,
      "လာပါတယ်": 8296,
      "လာတက်": 8297,
      "လာခဲ့": 8298,
      "လာသော": 8299,
      "လာဖို့": 8300,
      "လာခြင်း": 8301,
      "လာလိမ့်မယ်": 8302,
      "လာရမှာ": 8303,
      "လာပေးပြီး": 8304,
      "လာခဲ့သည်": 8305,
      "လာလုပ်တဲ့": 8306,
      "လာကြပါတယ်": 8307,
      "လာကြတာပါ": 8308,
      "လာဟလ": 8309,
      "လူန": 8310,
      "လူစား": 8311,
      "လူသား": 8312,
      "လူနဲ့": 8313,
      "လူပန်း": 8314,
      "လူပုံ": 8315,
      "လူလည်": 8316,
      "လူပေါ်": 8317,
      "လူရိုး": 8318,
      "လူသတ်": 8319,
      "လူစဉ်": 8320,
      "လူမွေး": 8321,
      "လူဆိုတာ": 8322,
      "လူကတော့": 8323,
      "လူကျယ်": 8324,
      "လူလိမ်": 8325,
      "လူယုံ": 8326,
      "လူနှင့်": 8327,
      "လူစွမ်း": 8328,
      "လူမွဲ": 8329,
      "လူယုတ်မာ": 8330,
      "လူဦး": 8331,
      "လူဦးရေ": 8332,
      "လူသစ်တွေ": 8333,
      "လူနေမှု": 8334,
      "လေးတ": 8335,
      "လေးလက်": 8336,
      "လေးပေါက်": 8337,
      "လေးစိတ်": 8338,
      "လေးလဲ": 8339,
      "လေးရက်": 8340,
      "လေးမျက်နှာ": 8341,
      "လေးရပ်": 8342,
      "လေးပေါင်": 8343,
      "လေးချိုး": 8344,
      "လေးဆစ်": 8345,
      "လေးမြတ်": 8346,
      "လေးထောင့်": 8347,
      "ခံခံ": 8348,
      "ခံချက်": 8349,
      "ခံတပ်": 8350,
      "ခံရမယ်": 8351,
      "ခံပစ္စည်း": 8352,
      "ခံရသည်": 8353,
      "ခံပေးပြီး": 8354,
      "ခံပေးနေရတာလဲ": 8355,
      "ခံလိုက်ရတယ်": 8356,
      "နဲ့ဆို": 8357,
      "နဲ့ပေါ့": 8358,
      "နဲ့အမျှ": 8359,
      "နဲ့တပြားမှ": 8360,
      "ိပ်ရိပ်": 8361,
      "မိဂ": 8362,
      "မိတာ": 8363,
      "မိရင်": 8364,
      "မိလို့": 8365,
      "မိခဲ့": 8366,
      "မိဖု": 8367,
      "မိမဆုံးမ": 8368,
      "မိလဗေဒ": 8369,
      "မိတိုင်ဖ": 8370,
      "ရင်အေး": 8371,
      "ရင်ပုံ": 8372,
      "ရင်ထိုး": 8373,
      "ရင်ခေါင်း": 8374,
      "ရင်အုပ်": 8375,
      "ရင်ကျပ်": 8376,
      "ရင်ဖုံး": 8377,
      "ရင်ထဲမှာ": 8378,
      "ရင်ဖွင့်": 8379,
      "လိုက်စား": 8380,
      "လိုက်သည်": 8381,
      "လိုက်လာ": 8382,
      "လိုက်မယ်": 8383,
      "လိုက်လို့": 8384,
      "လိုက်ပြီ": 8385,
      "လိုက်လောက်": 8386,
      "လိုက်ဖက်": 8387,
      "လိုက်ရုံ": 8388,
      "လိုက်တမ်း": 8389,
      "လိုက်ရတာ": 8390,
      "လိုက်နော်": 8391,
      "လိုက်လုပ်ပေး": 8392,
      "လိုက်ရင်တော့": 8393,
      "လိုက်အခဲ": 8394,
      "လိုက်ဦးမယ်": 8395,
      "လိုက်လျော": 8396,
      "ရှိသည်": 8397,
      "ရှိထား": 8398,
      "ရှိလဲ": 8399,
      "ရှိကောင်း": 8400,
      "ရှိသော": 8401,
      "ရှိသေး": 8402,
      "ရှိသလို": 8403,
      "ရှိခဲ့ပြီး": 8404,
      "ရှိပါသေးတယ်": 8405,
      "ရှိပြီးသား": 8406,
      "ရှိရသေး": 8407,
      "ရှိပါသလား": 8408,
      "ရှိရမည်": 8409,
      "လေကာ": 8410,
      "လေထိုး": 8411,
      "လေရော": 8412,
      "လေပူ": 8413,
      "လေပြည်": 8414,
      "လေချဉ်": 8415,
      "လေထု": 8416,
      "လေရှူ": 8417,
      "လေညင်း": 8418,
      "လေပွေ": 8419,
      "လေသင်တုန်း": 8420,
      "လေဝသ": 8421,
      "အသင်": 8422,
      "အသပ်": 8423,
      "အသန်း": 8424,
      "အသောက်": 8425,
      "အသိပ်": 8426,
      "အသွမ်း": 8427,
      "အသဲလေး": 8428,
      "အသိုင်းအဝိုင်း": 8429,
      "ရေးကြီး": 8430,
      "ရေးပါတယ်": 8431,
      "ရေးမူ": 8432,
      "ရေးထားတဲ့": 8433,
      "ရေးခြစ်": 8434,
      "ရေးနိုင်တယ်": 8435,
      "ရေးလိုက်တဲ့": 8436,
      "ရေးနိုင်ဖို့": 8437,
      "ရေးပြထားတဲ့": 8438,
      "ရေးနေစဉ်": 8439,
      "ရေးဆိုခွင့်": 8440,
      "တော်ရာ": 8441,
      "တော်တဲ့": 8442,
      "တော်သား": 8443,
      "တော်တင်": 8444,
      "တော်ကာ": 8445,
      "တော်သံ": 8446,
      "တော်ပုံ": 8447,
      "တော်လည်း": 8448,
      "တော်ရိ": 8449,
      "တော်ချိန်": 8450,
      "တော်ကြေး": 8451,
      "တော်မီ": 8452,
      "တော်ဖွင့်": 8453,
      "တော်သလင်း": 8454,
      "ရွစိ": 8455,
      "ရွိုင်ရယ်": 8456,
      "သာန်": 8457,
      "သာပေး": 8458,
      "သာလာ": 8459,
      "သာဆုံး": 8460,
      "သာလိပ်": 8461,
      "သာခါ": 8462,
      "သာနု": 8463,
      "သာခို": 8464,
      "သာသာယာ": 8465,
      "သာဠ်": 8466,
      "သာဓက": 8467,
      "လုံးဝ": 8468,
      "လုံးကို": 8469,
      "လုံးပေါက်": 8470,
      "လုံးလား": 8471,
      "လုံးတီး": 8472,
      "လုံးတွင်": 8473,
      "လုံးချော": 8474,
      "လုံးပျောက်": 8475,
      "လုံးထွင်း": 8476,
      "လိုကို": 8477,
      "လိုလား": 8478,
      "လိုပါတယ်": 8479,
      "လိုမင်း": 8480,
      "လိုတရ": 8481,
      "လိုအင်": 8482,
      "လိုနေတယ်": 8483,
      "လိုတာထက်": 8484,
      "မာဏ": 8485,
      "မာယာ": 8486,
      "မာကျီ": 8487,
      "မာကျော": 8488,
      "မာရ်": 8489,
      "မာတိကာ": 8490,
      "မီးစ": 8491,
      "မီးချ": 8492,
      "မီးပေါက်": 8493,
      "မီးနိုင်": 8494,
      "မီးပန်း": 8495,
      "မီးဝင်": 8496,
      "မီးတိုက်": 8497,
      "မီးများ": 8498,
      "မီးပုံ": 8499,
      "မီးသေ": 8500,
      "မီးသီး": 8501,
      "မီးထွက်": 8502,
      "မီးပျက်": 8503,
      "မီးခတ်": 8504,
      "မီးသင့်": 8505,
      "မီးမောင်း": 8506,
      "မီးပွား": 8507,
      "မီးပွင့်": 8508,
      "မီးပြင်း": 8509,
      "မီးတား": 8510,
      "မီးငြိမ်း": 8511,
      "မီးဖွား": 8512,
      "မီးပုံး": 8513,
      "မီးစုန်း": 8514,
      "မီးမသေ": 8515,
      "မီးရှို့": 8516,
      "တင်တာ": 8517,
      "တင်ဘာ": 8518,
      "တင်ပါတယ်": 8519,
      "တင်ဒါ": 8520,
      "တင်စီး": 8521,
      "တင်ဆက်": 8522,
      "တင်မောင်း": 8523,
      "တင်လိုက်တာ": 8524,
      "တင်မရ": 8525,
      "တင်စရာ": 8526,
      "တင်ရတာ": 8527,
      "တင်ခိုင်း": 8528,
      "တင်သင်္ဘော": 8529,
      "တင်ပျဉ်": 8530,
      "တင်ခဲ့တယ်": 8531,
      "တင်မြှောက်": 8532,
      "တင်ပြီးတော့": 8533,
      "တင်တာလဲ": 8534,
      "တင်သမျှ": 8535,
      "တင်ကြည့်ပါလား": 8536,
      "တင်မြေနု": 8537,
      "တို့မှ": 8538,
      "တို့တွေ": 8539,
      "တို့ဖြစ်": 8540,
      "တို့နဲ့": 8541,
      "တို့ပဲ": 8542,
      "တို့လည်း": 8543,
      "တို့ဖတ်": 8544,
      "တို့ကြောင့်": 8545,
      "ထားသည်": 8546,
      "ထားခဲ့": 8547,
      "ထားဝယ်": 8548,
      "ထားသည့်": 8549,
      "ထားပါသေးတယ်": 8550,
      "ထားခဲ့ဘူး": 8551,
      "ထားတတ်တဲ့": 8552,
      "ထားသလောက်": 8553,
      "ထားပေမယ့်": 8554,
      "ထားအုံးတဲ့": 8555,
      "ထားကြတာ": 8556,
      "ပဲလို့": 8557,
      "ပဲပေါင်း": 8558,
      "ပဲတင်း": 8559,
      "ပဲလိပ်": 8560,
      "ပဲပုပ်": 8561,
      "ပဲတောင့်": 8562,
      "ပဲစိမ်းစား": 8563,
      "မျက်စ": 8564,
      "မျက်ပါး": 8565,
      "မျက်မွေး": 8566,
      "မျက်ကွင်း": 8567,
      "မျက်ဖြူ": 8568,
      "မျက်ခွက်": 8569,
      "မျက်လှည့်": 8570,
      "မျက်ကွယ်": 8571,
      "မျက်ကဲ": 8572,
      "မျက်လွှာ": 8573,
      "မျက်မှန်း": 8574,
      "မျက်မှောက်": 8575,
      "မျက်မည်း": 8576,
      "မျက်ခြည်": 8577,
      "မျက်ခမ်း": 8578,
      "မျက်ရွဲ": 8579,
      "ပေါက်တာ": 8580,
      "ပေါက်တယ်": 8581,
      "ပေါက်တော့": 8582,
      "ပေါက်လေး": 8583,
      "ပေါက်မယ်": 8584,
      "ပေါက်တိုး": 8585,
      "ပေါက်စီ": 8586,
      "ပေါက်ကွဲ": 8587,
      "ပေါက်ဖော်": 8588,
      "ပေါက်ဆား": 8589,
      "ပေါက်စျေး": 8590,
      "ပေါက်ချွန်း": 8591,
      "ပေါက်နေရင်": 8592,
      "ပေါက်ပြန်ရော": 8593,
      "ခင်ကြည်": 8594,
      "ခင်လင်း": 8595,
      "ခင်မမ": 8596,
      "ခင်ကြူ": 8597,
      "အေးမြ": 8598,
      "အေးကြည်": 8599,
      "အေးမီ": 8600,
      "အေးစန္ဒာ": 8601,
      "နိုင်ပြီ": 8602,
      "နိုင်သော": 8603,
      "နိုင်ထက်": 8604,
      "နိုင်နင်း": 8605,
      "နိုင်လိမ့်မယ်": 8606,
      "နိုင်မယ့်": 8607,
      "နိုင်မလဲ": 8608,
      "နိုင်ခဲ့တယ်": 8609,
      "နိုင်ဘူးလား": 8610,
      "နိုင်သူတွေ": 8611,
      "နိုင်မလား": 8612,
      "နိုင်ခဲ့ပြီး": 8613,
      "နိုင်ကြပါစေ": 8614,
      "နိုင်လိုမင်း": 8615,
      "ကားစင်": 8616,
      "သွားလို့": 8617,
      "သွားရော": 8618,
      "သွားစေ": 8619,
      "သွားချေး": 8620,
      "သွားကြတယ်": 8621,
      "သွားခဲ့ပြီး": 8622,
      "သွားတာကို": 8623,
      "သွားနိုင်မယ်": 8624,
      "သွားပြောတာ": 8625,
      "သွားချင်ပါတယ်": 8626,
      "လားရာ": 8627,
      "လားအပ်": 8628,
      "သိက": 8629,
      "သိယ": 8630,
      "သိသည်": 8631,
      "သိရင်": 8632,
      "သိလား": 8633,
      "သိသိ": 8634,
      "သိကာ": 8635,
      "သိလို့": 8636,
      "သိအောင်": 8637,
      "သိချင်": 8638,
      "သိင်္ဂ": 8639,
      "သိကြတယ်": 8640,
      "သိနေတဲ့": 8641,
      "သိရပါတယ်": 8642,
      "သိခဲ့ကြ": 8643,
      "သိရအောင်": 8644,
      "သိထားရင်": 8645,
      "သိကာရ": 8646,
      "သိပါသလား": 8647,
      "သိသွားရင်": 8648,
      "သိလို့လား": 8649,
      "သိင်္ဂါ": 8650,
      "သိပါရစေ": 8651,
      "သိန္ဓော": 8652,
      "မယ်ဖျ": 8653,
      "မယ်ဆိုရင်တော့": 8654,
      "မယ်ဗျာ": 8655,
      "စိတ်လေ": 8656,
      "စိတ်တင်": 8657,
      "စိတ်ထား": 8658,
      "စိတ်ပေါက်": 8659,
      "စိတ်ဝင်": 8660,
      "စိတ်နောက်": 8661,
      "စိတ်ပင်": 8662,
      "စိတ်ရင်း": 8663,
      "စိတ်ပူ": 8664,
      "စိတ်ရဲ": 8665,
      "စိတ်မှတ်": 8666,
      "စိတ်ကောက်": 8667,
      "စိတ်ဝမ်း": 8668,
      "စိတ်တိုင်း": 8669,
      "စိတ်ထဲ": 8670,
      "စိတ်ထက်": 8671,
      "စိတ်ကတော့": 8672,
      "စိတ်မြန်": 8673,
      "စိတ်ရှည်": 8674,
      "စိတ်ရှုပ်": 8675,
      "စိတ်စော": 8676,
      "စိတ်သက်သာ": 8677,
      "စိတ်ထောင်း": 8678,
      "စိတ်သဘောထား": 8679,
      "စိတ်အားငယ်": 8680,
      "စိတ်ဒွိဟ": 8681,
      "လဲတဲ့": 8682,
      "လဲလူ": 8683,
      "လဲစင်": 8684,
      "လဲပေးတာ": 8685,
      "လဲရင်တောင်": 8686,
      "အရိ": 8687,
      "အရဲ": 8688,
      "အရန်": 8689,
      "အရစ်": 8690,
      "အရီး": 8691,
      "အရွေ": 8692,
      "အရုံး": 8693,
      "အရိုင်": 8694,
      "အရည်း": 8695,
      "အရွက်": 8696,
      "ပန်းလှ": 8697,
      "ပန်းခံ": 8698,
      "ပန်းထိုး": 8699,
      "ပန်းပု": 8700,
      "ပန်းစည်း": 8701,
      "ပန်းသေး": 8702,
      "ပန်းရိုက်": 8703,
      "ပန်းရန်": 8704,
      "ပန်းခြောက်": 8705,
      "ပန်းပြား": 8706,
      "ပန်းခိုင်": 8707,
      "ပန်းနု": 8708,
      "ပန်းပွင့်": 8709,
      "ပန်းပွတ်": 8710,
      "ပန်းကြွ": 8711,
      "ပန်းလှန်": 8712,
      "ပန်းခွေ": 8713,
      "ပန်းခြံ": 8714,
      "ပန်းခပ်": 8715,
      "ပန်းသုန်း": 8716,
      "ကာကာ": 8717,
      "ကာပူ": 8718,
      "ကာနီ": 8719,
      "ကာဗွန်": 8720,
      "တိကျ": 8721,
      "တိရိ": 8722,
      "တိရသ": 8723,
      "တိမှုန်": 8724,
      "တိပိဋက": 8725,
      "သံပေး": 8726,
      "သံလိုက်": 8727,
      "သံတော်": 8728,
      "သံတို့": 8729,
      "သံလမ်း": 8730,
      "သံရှင်": 8731,
      "သံချို": 8732,
      "သံပူ": 8733,
      "သံကြား": 8734,
      "သံကြောင်": 8735,
      "သံစုံ": 8736,
      "သံစဉ်": 8737,
      "သံဝေ": 8738,
      "သံရောင်": 8739,
      "သံကွဲ": 8740,
      "သံပြား": 8741,
      "သံရှည်": 8742,
      "သံချောင်း": 8743,
      "သံရုံး": 8744,
      "သံချေး": 8745,
      "သံခွာ": 8746,
      "သံမှို": 8747,
      "သံသယ": 8748,
      "သံဝဋ္ဋ": 8749,
      "ဦးချ": 8750,
      "ဦးလေး": 8751,
      "ဦးလေ": 8752,
      "ဦးဦး": 8753,
      "ဦးခေါင်း": 8754,
      "ဦးအောင်": 8755,
      "ဦးခန်း": 8756,
      "ဦးကိုင်": 8757,
      "ဦးလှည့်": 8758,
      "ဦးပွတ်": 8759,
      "ဦးစွန်း": 8760,
      "ဦးဘီလူး": 8761,
      "ဦးတည့်": 8762,
      "ဦးထိပ်": 8763,
      "ဦးဘယ်သူ": 8764,
      "ဦးနှိမ်": 8765,
      "ဦးပြည်း": 8766,
      "ဘာတွေ": 8767,
      "ဘာကြီး": 8768,
      "ဘာများ": 8769,
      "ဘာကြောင့်": 8770,
      "ဘာဘူ": 8771,
      "ဘာဂီ": 8772,
      "ဘာမဆို": 8773,
      "ဘာဟီ": 8774,
      "ဘာလိုလို": 8775,
      "ဘာစားမလဲ": 8776,
      "ကိုယ်ပါ": 8777,
      "ကိုယ်လုပ်": 8778,
      "ကိုယ်တော့": 8779,
      "ကိုယ်နဲ့": 8780,
      "ကိုယ်လဲ": 8781,
      "ကိုယ်ချက်": 8782,
      "ကိုယ်တောင်": 8783,
      "ကိုယ်ခွဲ": 8784,
      "ကိုယ်လွတ်": 8785,
      "ကိုယ်ထူး": 8786,
      "ကိုယ်ထည်": 8787,
      "ကိုယ်ရံ": 8788,
      "ကိုယ်ဟန်": 8789,
      "ကိုယ်ကြိုက်": 8790,
      "ကိုယ်တစ်ပိုင်း": 8791,
      "ကိုယ်ဝန်ဆောင်": 8792,
      "ကိုယ်ချင်းစာ": 8793,
      "ကိုယ်လိုချင်တဲ့": 8794,
      "ကိုယ်တွေဆို": 8795,
      "အစေ": 8796,
      "အစိုင်": 8797,
      "အစွတ်": 8798,
      "အစွယ်": 8799,
      "အစဉ်း": 8800,
      "နားမှာ": 8801,
      "နားခံ": 8802,
      "နားပေါက်": 8803,
      "နားလည်း": 8804,
      "နားရင်း": 8805,
      "နားကြား": 8806,
      "နားတို": 8807,
      "နားပြည်": 8808,
      "နားထင်": 8809,
      "နားလှည့်": 8810,
      "နားဖာ": 8811,
      "နားနေခန်း": 8812,
      "လို့ကို": 8813,
      "လို့ဘဲ": 8814,
      "ပါးနပ်": 8815,
      "ပါးရှား": 8816,
      "ပါးချိတ်": 8817,
      "အကြော်": 8818,
      "အကြွား": 8819,
      "အကြည့်": 8820,
      "အချပ်": 8821,
      "အချီး": 8822,
      "အချော်": 8823,
      "အချွန်": 8824,
      "အားရှိ": 8825,
      "အားထား": 8826,
      "အားကောင်း": 8827,
      "အားတောင့်": 8828,
      "အားမြှောက်": 8829,
      "ခွန့်": 8830,
      "ခွတိုက်": 8831,
      "ခုတုံး": 8832,
      "ခုလတ်": 8833,
      "ဝင်တဲ့": 8834,
      "ဝင်အိုး": 8835,
      "ဝင်ကြေး": 8836,
      "ဝင်လိုက်ပါ": 8837,
      "ဝင်ပစ္စည်း": 8838,
      "ဝင်မလာ": 8839,
      "ဝင်လာရော": 8840,
      "ဝင်နိုင်ခဲ့": 8841,
      "ဖျဉ်": 8842,
      "လျှင်း": 8843,
      "တိုက်အား": 8844,
      "တိုက်တိုက်": 8845,
      "တိုက်ရည်": 8846,
      "တိုက်သွင်း": 8847,
      "တိုက်တွန်း": 8848,
      "တိုက်နေချိန်": 8849,
      "ပြန်ပြော": 8850,
      "ပြန်ပြီ": 8851,
      "ပြန်ပေါင်း": 8852,
      "ပြန်ကြား": 8853,
      "ပြန်ရောက်": 8854,
      "ပြန်တိုး": 8855,
      "ပြန်ပိတ်": 8856,
      "ပြန်ချိန်": 8857,
      "ပြန်ပို့": 8858,
      "ပြန်လာတာ": 8859,
      "ပြန်ထားတာ": 8860,
      "ပြန်စစ်ဆေး": 8861,
      "ပြန်တင်ပေး": 8862,
      "ပြန်ဖြည့်": 8863,
      "နောက်ထ": 8864,
      "နောက်ပါ": 8865,
      "နောက်သား": 8866,
      "နောက်နောက်": 8867,
      "နောက်ဆက်": 8868,
      "နောက်ထွက်": 8869,
      "နောက်ကြောင်း": 8870,
      "နောက်မြီး": 8871,
      "နောက်ငင်": 8872,
      "နောက်ဆုတ်": 8873,
      "နောက်ဖယ်": 8874,
      "နောက်တစ်ဆင့်": 8875,
      "ဆေးကျ": 8876,
      "ဆေးအိုး": 8877,
      "ဆေးဆိုး": 8878,
      "ဆေးဆိုင်": 8879,
      "ဆေးခန်း": 8880,
      "ဆေးပြား": 8881,
      "ဆေးသုတ်": 8882,
      "ဆေးလက်မှတ်": 8883,
      "ဆေးဒန်း": 8884,
      "ပြောပါ": 8885,
      "ပြောတယ်": 8886,
      "ပြောလိုက်": 8887,
      "ပြောလို့": 8888,
      "ပြောကြည့်": 8889,
      "ပြောသင့်": 8890,
      "ပြောမယ့်": 8891,
      "ပြောရတယ်": 8892,
      "ပြောချင်တာ": 8893,
      "ပြောထားတာ": 8894,
      "ပြောဆိုသည်": 8895,
      "ပြောတတ်တဲ့": 8896,
      "ပြောရုံပဲ": 8897,
      "ပြောစရာတွေ": 8898,
      "ပြောနေရင်တော့": 8899,
      "ပြောရရင်": 8900,
      "ပြောရေးဆိုခွင့်": 8901,
      "ပြောနိုင်မလား": 8902,
      "ခြေတင်": 8903,
      "ခြေများ": 8904,
      "ခြေချုပ်": 8905,
      "ခြေတို": 8906,
      "ခြေဖျား": 8907,
      "ခြေဆင်း": 8908,
      "ခြေဟန်": 8909,
      "ခြေကိုက်": 8910,
      "ခြေခွင်": 8911,
      "ခြေလျင်": 8912,
      "ခြေသလုံး": 8913,
      "မှုကြောင့်": 8914,
      "ဒီဃ": 8915,
      "ဒီပွဲ": 8916,
      "ဒီဟာ": 8917,
      "ဒီထက်": 8918,
      "ဒီနှိပ်": 8919,
      "ဒီအချက်": 8920,
      "ဒီမှာတော့": 8921,
      "ဒီဇင်": 8922,
      "ဒီလူတွေက": 8923,
      "ဒီပုံက": 8924,
      "ဒီရက်ပိုင်း": 8925,
      "ဒီလာဖို့": 8926,
      "ဒီလူကတော့": 8927,
      "န္ဒု": 8928,
      "များတဲ့": 8929,
      "များတော့": 8930,
      "များမှာ": 8931,
      "များပါတယ်": 8932,
      "များပြား": 8933,
      "များသလို": 8934,
      "ပုံချ": 8935,
      "ပုံကျ": 8936,
      "ပုံကို": 8937,
      "ပုံမှာ": 8938,
      "ပုံတော်": 8939,
      "ပုံပဲ": 8940,
      "ပုံတိုက်": 8941,
      "ပုံဆောင်": 8942,
      "ပုံမှန်": 8943,
      "ပုံပျက်": 8944,
      "ပုံလုံ": 8945,
      "ပုံကြမ်း": 8946,
      "ပုံရိပ်": 8947,
      "ပုံဟောင်း": 8948,
      "ပုံဆိုက်": 8949,
      "ပုံလေးတွေကို": 8950,
      "ပုံရာပုံ": 8951,
      "မင်းမှာ": 8952,
      "မင်းပေါက်": 8953,
      "မင်းမှု": 8954,
      "မင်းဆက်": 8955,
      "မင်းတိုင်း": 8956,
      "မင်းဒဏ်": 8957,
      "မင်းလွင်": 8958,
      "မင်းခမ်း": 8959,
      "မင်းမြှောင်": 8960,
      "သေစာ": 8961,
      "သေသွား": 8962,
      "သေသေ": 8963,
      "သေအောင်": 8964,
      "သေခန်း": 8965,
      "သေတမ်း": 8966,
      "သေဖော်": 8967,
      "သေသေချာ": 8968,
      "ထိုးသူ": 8969,
      "ထိုးဆေး": 8970,
      "ထိုးကြိတ်": 8971,
      "တက်လိုက်": 8972,
      "တက်ပါတယ်": 8973,
      "တက်စေ့": 8974,
      "တက်ဖျား": 8975,
      "တက်သုတ်": 8976,
      "တက်ရမယ်": 8977,
      "တက်လာတဲ့": 8978,
      "တက်လာပြီ": 8979,
      "ပင်မ": 8980,
      "ပင်သည်": 8981,
      "ပင်နီ": 8982,
      "ပင်စည်": 8983,
      "ကောင်းရာ": 8984,
      "ကောင်းလှ": 8985,
      "ကောင်းပြီး": 8986,
      "ကောင်းသော": 8987,
      "ကောင်းရက်": 8988,
      "ကောင်းကျိုး": 8989,
      "ကောင်းမယ့်": 8990,
      "ကောင်းပါပြီ": 8991,
      "လည်တံ": 8992,
      "လည်ပေါ်": 8993,
      "လည်သီး": 8994,
      "လည်တိုင်": 8995,
      "လည်ပတ်": 8996,
      "လည်စည်း": 8997,
      "လည်ကြောင်": 8998,
      "လည်ခါ": 8999,
      "လည်ချောင်း": 9000,
      "လည်ဆစ်": 9001,
      "လည်ခွံ": 9002,
      "လည်ပြန်ကြည့်": 9003,
      "ရည်တက်": 9004,
      "ရည်သန်": 9005,
      "ရည်မှန်း": 9006,
      "ရည်စိမ်": 9007,
      "ရည်ညွှန်း": 9008,
      "ချက်ချ": 9009,
      "ချက်ကျ": 9010,
      "ချက်တာ": 9011,
      "ချက်တို့": 9012,
      "ချက်များ": 9013,
      "ချက်ချက်": 9014,
      "ချက်ညီ": 9015,
      "ချက်ကျောက်": 9016,
      "ချက်ကြွေ": 9017,
      "ချက်မြှုပ်": 9018,
      "ချက်လက်မှတ်": 9019,
      "တရိ": 9020,
      "တရူ": 9021,
      "တရော": 9022,
      "တရူး": 9023,
      "တရိပ်ရိပ်": 9024,
      "ဝါဒါ": 9025,
      "ဝါငယ်": 9026,
      "ဝါသီ": 9027,
      "ဝါထပ်": 9028,
      "ဝါခေါင်": 9029,
      "ဝါကြိတ်": 9030,
      "သက်လေး": 9031,
      "သက်ရှိ": 9032,
      "သက်ရင်း": 9033,
      "သက်လတ်": 9034,
      "သက်ဦးဆံပိုင်": 9035,
      "သမတ်": 9036,
      "သမန်း": 9037,
      "သမဲ့": 9038,
      "သမုတ်": 9039,
      "သမသတ်": 9040,
      "သမေတ္တာ": 9041,
      "ဒါတွေ": 9042,
      "ဒါဆို": 9043,
      "ဒါလေး": 9044,
      "ဒါနဲ့": 9045,
      "ဒါလည်း": 9046,
      "ဒါမျိုး": 9047,
      "ဒါဖြင့်": 9048,
      "ဒါသည်က": 9049,
      "ဇာဂြိုဟ်": 9050,
      "ပွဲဝင်": 9051,
      "ပွဲလမ်း": 9052,
      "ပွဲထိုင်": 9053,
      "ပွဲလန့်": 9054,
      "ပွဲသဘင်": 9055,
      "အာသ": 9056,
      "အာရှ": 9057,
      "အာပေါ": 9058,
      "အာကာ": 9059,
      "အာသီး": 9060,
      "အာစက်": 9061,
      "အာဆီ": 9062,
      "အာပေါင်": 9063,
      "အာနိ": 9064,
      "အာနု": 9065,
      "အာတိတ်": 9066,
      "အာဘော်": 9067,
      "အာသွက်": 9068,
      "အာဒိ": 9069,
      "အာဟာရ": 9070,
      "အာဃာ": 9071,
      "အာဂန္": 9072,
      "အာဝါသ": 9073,
      "အာဝါဟ": 9074,
      "အာဇာနည်": 9075,
      "က္ခု": 9076,
      "အိမ်ကို": 9077,
      "အိမ်သူ": 9078,
      "အိမ်သား": 9079,
      "အိမ်လေး": 9080,
      "အိမ်ခြေ": 9081,
      "အိမ်တက်": 9082,
      "အိမ်တိုင်": 9083,
      "အိမ်ရှင်": 9084,
      "အိမ်သုံး": 9085,
      "အိမ်ပစ်": 9086,
      "အိမ်ဖွဲ့": 9087,
      "အိမ်ရှေ့": 9088,
      "အိမ်မြှောင်": 9089,
      "အိမ်ခလောက်": 9090,
      "ခဲ့ပါဘူး": 9091,
      "ခဲ့ဘဲ": 9092,
      "ခဲ့ကြတယ်": 9093,
      "ခဲ့သည့်": 9094,
      "ခဲ့ပါပြီ": 9095,
      "ခဲ့ရတဲ့": 9096,
      "ခဲ့ကြသည်": 9097,
      "ခဲ့ရတာလဲ": 9098,
      "ခဲ့မိတဲ့": 9099,
      "ခဲ့လို့လား": 9100,
      "တံပူ": 9101,
      "တံကူ": 9102,
      "တံသင်း": 9103,
      "တံရှည်": 9104,
      "တံလျှောက်": 9105,
      "တံစဉ်း": 9106,
      "တံသုတ်": 9107,
      "တံပြက်": 9108,
      "တံမျဉ်း": 9109,
      "တံတွေး": 9110,
      "တံချူ": 9111,
      "အမံ": 9112,
      "အမတ်": 9113,
      "အမိုး": 9114,
      "အမောက်": 9115,
      "အမောင်း": 9116,
      "အမည်း": 9117,
      "ခေါင်းချ": 9118,
      "ခေါင်းကြီး": 9119,
      "ခေါင်းပေါင်း": 9120,
      "ခေါင်းပူ": 9121,
      "ခေါင်းဖြူ": 9122,
      "ခေါင်းတွဲ": 9123,
      "ခေါင်းရှုပ်": 9124,
      "ဗျိုး": 9125,
      "ဗျိုက်": 9126,
      "ဗျတ္တိ": 9127,
      "နည်းကျ": 9128,
      "နည်းသည်": 9129,
      "နည်းမယ်": 9130,
      "နည်းနေပြီ": 9131,
      "နည်းဗျူဟာ": 9132,
      "ပေါ်ပေါ်": 9133,
      "ပေါ်လာတာ": 9134,
      "ပေါ်နေပြီ": 9135,
      "လွှံ့": 9136,
      "လွှင့်": 9137,
      "တောင်စာ": 9138,
      "တောင်ကြီး": 9139,
      "တောင်လို့": 9140,
      "တောင်ခြေ": 9141,
      "တောင်ပေါ်": 9142,
      "တောင်တန်း": 9143,
      "တောင်ကြား": 9144,
      "တောင်တန်": 9145,
      "တောင်ထိပ်": 9146,
      "တောင်ချွန်း": 9147,
      "အဆန်": 9148,
      "အဆော်": 9149,
      "အဆွဲ": 9150,
      "အထမ်း": 9151,
      "အထောင်": 9152,
      "အထုံး": 9153,
      "အထုတ်": 9154,
      "အထေ့": 9155,
      "အထိမ်း": 9156,
      "အထွာ": 9157,
      "ဖွဖွ": 9158,
      "သီးသီး": 9159,
      "သီးစုံ": 9160,
      "သီးနှံ": 9161,
      "အကန်": 9162,
      "အကတ်": 9163,
      "အကန်း": 9164,
      "အကိုး": 9165,
      "အကွန့်": 9166,
      "အကွပ်": 9167,
      "eral": 9168,
      "erflow": 9169,
      "ငါးလက်": 9170,
      "ငါးပတ်": 9171,
      "ငါးပေါင်း": 9172,
      "ငါးစင်": 9173,
      "ငါးခြောက်": 9174,
      "ငါးစိမ်း": 9175,
      "ငါးရစ်": 9176,
      "ငါးချဉ်": 9177,
      "ငါးကျပ်": 9178,
      "ငါးကျည်း": 9179,
      "ငါးဖောင်": 9180,
      "ငါးနှပ်": 9181,
      "မိုးရေ": 9182,
      "မိုးပေါက်": 9183,
      "မိုးခါး": 9184,
      "မိုးလင်း": 9185,
      "မိုးဆွေ": 9186,
      "မိုးခို": 9187,
      "မိုးခေါင်": 9188,
      "မိုးပျံ": 9189,
      "မိုးယို": 9190,
      "မိုးတိမ်": 9191,
      "မိုးမှောင်": 9192,
      "မိုးဖွဲ": 9193,
      "မိုးမဆုံး": 9194,
      "မိုးရေချိန်": 9195,
      "မိုးလေဝသ": 9196,
      "ငွေကို": 9197,
      "ငွေတွေ": 9198,
      "ငွေသည်": 9199,
      "ငွေလေး": 9200,
      "ငွေတိုး": 9201,
      "ငွေချေး": 9202,
      "ငွေလိမ်": 9203,
      "ငွေချေ": 9204,
      "ငွေထောင်ချောက်": 9205,
      "ငွေသွင်းပြီး": 9206,
      "ငွေတစ်ဆယ်": 9207,
      "ငွေလွှဲစာ": 9208,
      "အောင်တယ်": 9209,
      "အောင်မဲ": 9210,
      "ရွှဲ": 9211,
      "ရွှမ်း": 9212,
      "core": 9213,
      "coma": 9214,
      "cobol": 9215,
      "cogni": 9216,
      "copy": 9217,
      "တိုင်ကို": 9218,
      "တိုင်ကြီး": 9219,
      "တိုင်အောင်": 9220,
      "တိုင်တည်": 9221,
      "တိုင်စိုက်": 9222,
      "လမ်းပန်း": 9223,
      "လမ်းဆုံး": 9224,
      "လမ်းပညာ": 9225,
      "လမ်းခွဲ": 9226,
      "လမ်းဖောက်": 9227,
      "လမ်းခရီး": 9228,
      "လမ်းဆုံ": 9229,
      "လမ်းမကြီး": 9230,
      "နေ့ကျ": 9231,
      "နေ့စား": 9232,
      "နေ့ပေါ့": 9233,
      "နေ့စေ့": 9234,
      "နေ့မှာပဲ": 9235,
      "ပုည": 9236,
      "ပုလေး": 9237,
      "ပုလင်း": 9238,
      "ပုလု": 9239,
      "ပုစ္ဆာ": 9240,
      "ပုဂံ": 9241,
      "ပုဆိန်": 9242,
      "မြေကျ": 9243,
      "မြေကြီး": 9244,
      "မြေသား": 9245,
      "မြေခံ": 9246,
      "မြေယာ": 9247,
      "မြေကိုင်": 9248,
      "မြေကွက်": 9249,
      "မြေလူး": 9250,
      "မြေလှန်": 9251,
      "ယူဆ": 9252,
      "ယူတာ": 9253,
      "ယူရေ": 9254,
      "ယူမှာ": 9255,
      "ယူလာ": 9256,
      "ယူလိုက်": 9257,
      "ယူလို့": 9258,
      "ယူမှု": 9259,
      "ယူနစ်": 9260,
      "ယူသွားမှာ": 9261,
      "ယူရပါ့မယ်": 9262,
      "ယူရလို့": 9263,
      "ယူတော့မှာ": 9264,
      "စစ်ထိုး": 9265,
      "စစ်ချက်": 9266,
      "စစ်စစ်": 9267,
      "စစ်ဝန်": 9268,
      "စစ်တမ်း": 9269,
      "စစ်ထောက်": 9270,
      "စစ်ပြေး": 9271,
      "စစ်ကောင်စီ": 9272,
      "စစ်ဦးစီးချုပ်": 9273,
      "စစ်စတန်": 9274,
      "မျိုးတောင်": 9275,
      "မျိုးစပ်": 9276,
      "မျိုးချင်း": 9277,
      "မျိုးဆက်": 9278,
      "မျိုးခြား": 9279,
      "မျိုးချစ်": 9280,
      "ရိုးသည်": 9281,
      "ရိုးတံ": 9282,
      "ရိုးရင်း": 9283,
      "ရိုးသွေး": 9284,
      "ရိုးတိုး": 9285,
      "ရိုးတား": 9286,
      "ရိုးဖြောင့်": 9287,
      "ချင်မှ": 9288,
      "ချင်ပါ": 9289,
      "ချင်ခြင်း": 9290,
      "ချင်တော့ဘူး": 9291,
      "ချင်ပါသလား": 9292,
      "ချင်လောက်အောင်": 9293,
      "ချင်သေးလား": 9294,
      "ချင်ကြတာပါ": 9295,
      "နှစ်တွေ": 9296,
      "နှစ်ဦး": 9297,
      "နှစ်ပေါင်း": 9298,
      "နှစ်ချင်း": 9299,
      "နှစ်ပေါင်းများစွာ": 9300,
      "နှစ်သိမ့်": 9301,
      "ညာတ": 9302,
      "ညာဘက်မှာ": 9303,
      "ပတ်ခြင်း": 9304,
      "ပတ်ရှာ": 9305,
      "ပတ်ကြမ်း": 9306,
      "ပတ်ဝိုင်း": 9307,
      "ပတ်ကုံး": 9308,
      "ပတ်ပတ်လည်": 9309,
      "ပတ်ဝန်းကျင်": 9310,
      "ဟာကိုယ်": 9311,
      "ဟာမို": 9312,
      "ပြုလုပ်": 9313,
      "ပြုစား": 9314,
      "ပြုမိုး": 9315,
      "ပြုပြင်": 9316,
      "ရင်းသား": 9317,
      "ရင်းပြီး": 9318,
      "ရင်းနစ်": 9319,
      "ရင်းချာ": 9320,
      "ရင်းစွဲ": 9321,
[...]
